<unk>	0
<s>	0
</s>	0
,	-2.95305
▁and	-3.28612
.	-3.46314
▁to	-3.855
▁the	-4.05749
▁of	-4.26928
-	-4.30435
▁a	-4.33339
s	-4.34034
▁	-4.34888
▁in	-4.46649
▁with	-4.65117
▁for	-4.77179
ing	-4.88201
","	-4.92526
▁our	-5.11639
▁or	-5.21972
▁is	-5.23966
/	-5.25025
:	-5.32966
▁on	-5.40626
e	-5.45077
▁be	-5.5746
▁are	-5.58733
▁you	-5.60089
▁We	-5.60694
▁will	-5.65552
▁that	-5.66668
▁team	-5.68128
▁(	-5.70711
▁we	-5.71577
▁as	-5.76075
▁experience	-5.7713
▁an	-5.83414
d	-5.87907
)	-5.8825
▁work	-5.89342
ed	-5.9761
▁You	-5.99522
▁your	-6.00941
'	-6.09797
;	-6.10681
▁at	-6.11837
▁de	-6.14863
▁all	-6.1875
ly	-6.20874
▁this	-6.21937
▁by	-6.22434
r	-6.25379
▁time	-6.25996
▁from	-6.31521
▁have	-6.34693
▁other	-6.44612
▁A	-6.45602
▁The	-6.46902
▁status	-6.48958
▁business	-6.51356
▁skills	-6.53205
▁role	-6.55259
▁including	-6.55336
▁more	-6.55597
amp	-6.56353
▁data	-6.56884
T	-6.58789
▁teams	-6.58981
y	-6.59386
▁company	-6.60301
▁any	-6.61496
▁development	-6.63955
▁&	-6.65059
com	-6.6513
re	-6.68527
://	-6.70472
▁across	-6.70622
http	-6.71896
▁Experience	-6.72145
their	-6.72789
▁people	-6.74387
Z	-6.75187
▁new	-6.7574
▁-	-6.76625
▁not	-6.77467
▁working	-6.80019
▁us	-6.80469
Full	-6.808
▁years	-6.81299
▁design	-6.81301
▁et	-6.83742
▁product	-6.85563
▁who	-6.86011
ll	-6.86044
▁support	-6.86706
▁sales	-6.89022
▁through	-6.89172
No	-6.89332
▁customer	-6.90361
▁process	-6.92247
▁benefits	-6.94257
▁employment	-6.94316
t	-6.94971
▁Thi	-6.95518
▁opportunity	-6.96526
jobs	-6.97042
▁about	-6.97362
▁environment	-6.98016
▁management	-6.99337
▁disability	-6.99635
1	-7.00936
▁can	-7.01102
▁build	-7.03372
▁customers	-7.03708
▁gender	-7.06278
▁solutions	-7.06584
n	-7.06729
▁within	-7.0678
▁best	-7.07629
▁ability	-7.0859
al	-7.08887
▁systems	-7.09247
▁high	-7.09597
▁range	-7.10559
▁base	-7.10839
?	-7.12022
▁employees	-7.12072
▁make	-7.1285
▁information	-7.13316
▁Ou	-7.14149
▁job	-7.14821
▁software	-7.14894
▁help	-7.15022
."	-7.15055
▁one	-7.1593
▁look	-7.16719
▁tools	-7.17846
▁opportunities	-7.1894
▁may	-7.19005
▁en	-7.19791
▁position	-7.20108
er	-7.2119
▁technical	-7.21397
▁industry	-7.21559
▁communication	-7.24305
▁ensure	-7.24349
▁based	-7.24649
▁part	-7.24859
▁drive	-7.24947
_	-7.25727
▁members	-7.25837
▁protected	-7.25902
▁provide	-7.2704
▁processes	-7.2744
▁impact	-7.27782
▁culture	-7.28162
!	-7.28358
a	-7.29832
▁up	-7.30069
out	-7.31223
▁engineering	-7.31731
▁also	-7.31842
g	-7.31871
▁care	-7.33171
▁compensation	-7.33191
▁Manager	-7.3357
es	-7.33577
▁do	-7.33736
2025-0	-7.33893
▁mission	-7.34266
▁la	-7.34314
▁sexual	-7.34586
▁performance	-7.35025
▁hiring	-7.35214
▁applicants	-7.3744
▁leave	-7.38108
▁religion	-7.38378
▁des	-7.38464
or	-7.38703
▁national	-7.39108
▁orientation	-7.39396
▁vision	-7.39451
▁local	-7.39483
If	-7.39601
▁growth	-7.39638
▁race	-7.40402
▁projects	-7.4092
to	-7.41648
▁building	-7.42075
▁products	-7.42296
▁clients	-7.43193
▁In	-7.44139
A	-7.44846
▁well	-7.4515
▁how	-7.45753
▁paid	-7.45885
▁color	-7.45976
▁origin	-7.45988
▁health	-7.46019
on	-7.47154
▁As	-7.47604
▁Your	-7.48023
▁world	-7.48437
▁such	-7.48565
▁diverse	-7.48738
▁veteran	-7.4899
▁strong	-7.49289
▁pay	-7.49374
▁application	-7.49592
▁identity	-7.49624
▁un	-7.50389
▁where	-7.5046
▁understanding	-7.51915
S	-7.5199
▁has	-7.52784
▁digital	-7.53086
▁success	-7.53382
▁market	-7.5356
▁requirements	-7.5357
▁value	-7.5359
▁creative	-7.53841
▁into	-7.5394
▁equal	-7.54033
k	-7.54324
▁create	-7.54348
▁pleas	-7.54399
▁training	-7.54439
▁equity	-7.55359
▁community	-7.55494
bout	-7.56051
▁receive	-7.5607
▁knowledge	-7.56553
▁close	-7.56868
▁Work	-7.57049
w	-7.57413
▁technology	-7.57501
▁To	-7.57722
▁committed	-7.57894
▁cross	-7.58385
en	-7.58507
▁applicable	-7.59395
▁provid	-7.59491
▁experiences	-7.59661
▁but	-7.60133
o	-7.60173
▁future	-7.60248
▁och	-7.60501
▁age	-7.60757
▁employer	-7.60765
▁quality	-7.60793
▁out	-7.61013
▁believe	-7.61032
bility	-7.61167
▁internal	-7.61189
▁offer	-7.61286
▁global	-7.62939
▁goals	-7.63224
▁fast	-7.6389
▁Team	-7.65322
▁production	-7.65531
▁complex	-7.65858
▁practices	-7.66029
▁salary	-7.66313
▁unique	-7.66753
▁problems	-7.67255
▁needs	-7.67309
▁like	-7.6802
▁service	-7.68095
▁while	-7.68555
▁most	-7.68711
▁financial	-7.68821
▁related	-7.68996
▁organization	-7.69061
▁services	-7.69095
▁For	-7.69261
▁d	-7.6932
▁deliver	-7.69869
Not	-7.70797
job	-7.70905
▁office	-7.71013
▁develop	-7.71189
▁operations	-7.71266
▁Ogilvy	-7.71921
▁every	-7.72037
gh	-7.72779
2025-	-7.72808
▁off	-7.72856
▁using	-7.72873
▁applications	-7.72898
▁strategy	-7.73153
▁change	-7.73611
▁specified	-7.73763
).	-7.74028
▁les	-7.74355
▁3	-7.74549
ir	-7.74772
▁use	-7.74799
▁need	-7.75062
▁Strong	-7.75343
▁ensur	-7.75519
▁required	-7.76937
▁Engineer	-7.77033
▁no	-7.77226
▁large	-7.77422
▁C	-7.77608
▁test	-7.78223
▁key	-7.783
▁Peloton	-7.78597
▁regard	-7.78811
▁plan	-7.789
▁At	-7.78999
▁career	-7.79094
▁if	-7.79144
▁du	-7.79393
▁state	-7.79989
▁them	-7.80564
D	-7.80686
▁platform	-7.81059
st	-7.81335
▁AI	-7.81649
▁maintain	-7.81876
▁partners	-7.82111
▁client	-7.82743
▁project	-7.82835
▁responsible	-7.8285
▁roles	-7.8351
▁i	-7.83545
2	-7.83581
▁what	-7.83739
▁contact	-7.83849
▁marketing	-7.83901
▁understand	-7.84172
▁focus	-7.84368
▁day	-7.84462
▁individuals	-7.84544
smart	-7.84657
▁professional	-7.84795
recruiters	-7.85117
(	-7.85173
▁multiple	-7.85277
▁location	-7.85544
▁both	-7.85565
▁basis	-7.85658
▁candidates	-7.85762
▁its	-7.85878
▁401	-7.86034
functional	-7.86115
▁developing	-7.86328
▁join	-7.86344
▁sex	-7.86518
▁leading	-7.87048
▁und	-7.87667
▁qualified	-7.87831
▁stakeholders	-7.87907
▁medical	-7.88383
▁seek	-7.8844
▁package	-7.88526
▁accommodations	-7.89228
▁problem	-7.8926
+	-7.89511
-21	-7.89514
▁U	-7.89851
▁creating	-7.89857
▁Sales	-7.89912
▁plus	-7.89941
ve	-7.90029
▁S	-7.90323
▁MongoDB	-7.90397
▁know	-7.90476
▁life	-7.90597
▁journey	-7.90712
▁initiatives	-7.90913
▁security	-7.91022
▁right	-7.91069
▁What	-7.9109
▁content	-7.9153
▁eligible	-7.91695
▁than	-7.91761
▁R	-7.91804
▁improve	-7.91943
▁Product	-7.92045
ji	-7.92515
3-2	-7.9267
▁full	-7.92757
▁B	-7.92809
▁strategic	-7.92828
▁reasonabl	-7.93725
▁program	-7.93763
▁relationships	-7.93786
▁long	-7.93886
▁were	-7.93905
▁manage	-7.94114
▁way	-7.94275
▁policy	-7.94374
▁learn	-7.94579
▁food	-7.95173
▁home	-7.95754
▁great	-7.95838
▁Engineering	-7.95895
▁partner	-7.96076
▁competitive	-7.96443
▁leadership	-7.96452
▁own	-7.96491
▁accommodation	-7.96704
▁Roblox	-7.96759
term	-7.96861
▁Reddit	-7.9705
We	-7.97141
▁system	-7.97157
▁testing	-7.97261
▁lead	-7.97529
▁level	-7.97675
▁here	-7.97857
"	-7.97894
▁collaboration	-7.98034
▁I	-7.98333
▁delivery	-7.98756
io	-7.99329
▁able	-7.99383
▁take	-7.9963
3	-7.99975
▁engineers	-8.00006
03-2	-8.00174
▁some	-8.00557
▁l	-8.00685
▁it	-8.00721
▁Fair	-8.00791
▁Chance	-8.01021
▁personal	-8.01818
ww	-8.02055
▁inclusive	-8.02154
boards	-8.02404
▁technologies	-8.02474
▁learning	-8.02494
▁around	-8.02706
▁user	-8.02892
▁empower	-8.03085
▁physical	-8.03588
▁they	-8.03589
▁degree	-8.03975
▁law	-8.04055
▁mental	-8.04125
▁insurance	-8.04376
▁issues	-8.04656
▁relevant	-8.05433
▁together	-8.05874
▁DoorDash	-8.05895
▁manufacturing	-8.06347
▁Support	-8.06388
▁compliance	-8.06605
reenhouse	-8.06975
▁expression	-8.07197
▁was	-8.07585
▁over	-8.07599
▁candidate	-8.0773
▁supporting	-8.0819
▁highly	-8.0823
▁identify	-8.08632
▁Ebury	-8.08757
careers	-8.08761
▁Benefits	-8.08871
ty	-8.09054
▁legal	-8.09374
▁deep	-8.09513
ous	-8.0955
▁innovation	-8.09879
▁Excellent	-8.10071
▁expertise	-8.10127
▁parent	-8.10154
us	-8.10246
▁approach	-8.10332
▁Data	-8.10535
paced	-8.10575
▁managing	-8.10584
i	-8.10773
m	-8.10845
▁decisions	-8.11213
▁pet	-8.11305
▁year	-8.11461
▁analysis	-8.11495
▁needed	-8.1193
▁successful	-8.12035
▁launch	-8.1257
▁marital	-8.12625
▁challenges	-8.13148
LI	-8.13308
▁Qualifications	-8.13375
▁1	-8.14047
▁include	-8.14614
▁when	-8.14753
▁employee	-8.15125
),	-8.15369
▁dental	-8.15499
▁dynamic	-8.1619
▁etc	-8.16271
▁foster	-8.16488
▁Dog	-8.16727
*	-8.16857
▁Lyft	-8.16914
▁effectively	-8.17714
dont	-8.17848
related	-8.17859
▁Lead	-8.18304
▁p	-8.18413
▁days	-8.18436
▁ideas	-8.18451
▁along	-8.18606
▁next	-8.18626
▁research	-8.19
▁scale	-8.19186
▁visit	-8.19192
Responsibilities	-8.19278
▁strategies	-8.19391
▁s	-8.19657
C	-8.2041
▁communities	-8.2062
The	-8.20643
▁Wayfair	-8.21181
▁just	-8.21399
▁perform	-8.21747
▁want	-8.2179
▁insights	-8.21791
▁proud	-8.21888
▁comprehensive	-8.22412
▁pour	-8.22439
▁come	-8.22628
▁Flexible	-8.22684
▁meet	-8.23149
▁connect	-8.23229
▁genetic	-8.23433
▁safety	-8.23453
▁bring	-8.23557
▁features	-8.23939
▁federal	-8.23953
▁potential	-8.24013
▁Management	-8.24016
▁users	-8.24083
▁JFrog	-8.24213
▁Company	-8.24308
▁ideal	-8.24343
▁growing	-8.24674
▁att	-8.24779
time	-8.24828
▁end	-8.24865
▁game	-8.24905
▁interview	-8.25088
in	-8.25472
▁It	-8.25549
▁ourselves	-8.25641
▁t	-8.25768
▁code	-8.25771
▁better	-8.25808
▁field	-8.26179
▁grow	-8.26288
▁open	-8.26477
▁written	-8.26766
▁English	-8.26996
▁E	-8.27299
▁network	-8.27536
▁thrive	-8.27814
▁driving	-8.28286
▁Ordinance	-8.28487
▁varie	-8.28528
▁self	-8.28771
▁love	-8.28925
▁improving	-8.29058
▁innovative	-8.29075
▁engagement	-8.29175
&	-8.29251
▁different	-8.2944
▁cloud	-8.29976
which	-8.3059
▁under	-8.30691
▁le	-8.30867
▁infrastructure	-8.30893
▁equipment	-8.31002
▁earned	-8.31262
▁e	-8.31398
▁consider	-8.32231
▁standards	-8.32322
▁Opportunity	-8.32411
▁solve	-8.3247
▁so	-8.32497
▁Develop	-8.32588
▁execution	-8.32807
office	-8.32992
▁match	-8.33042
▁efficiency	-8.33237
▁activities	-8.33244
Experience	-8.33463
▁Software	-8.33517
▁must	-8.33582
▁/	-8.33799
▁N	-8.33839
▁necessary	-8.34105
▁factors	-8.34113
▁Carvana	-8.34248
▁should	-8.34396
▁below	-8.34406
▁NYC	-8.34413
▁track	-8.34523
▁record	-8.34615
▁matter	-8.34854
▁programs	-8.35086
▁agency	-8.35317
▁place	-8.35355
▁non	-8.35409
▁critical	-8.35649
▁directly	-8.3567
▁planning	-8.35693
solving	-8.35925
ance	-8.36277
▁week	-8.36535
▁per	-8.36718
▁top	-8.36742
▁dogs	-8.36811
▁qualifications	-8.36965
▁multi	-8.37031
▁Lo	-8.37201
▁discrimination	-8.37939
f	-8.37963
▁automation	-8.38564
▁helping	-8.38643
▁P	-8.39334
▁An	-8.39406
▁tasks	-8.39616
▁much	-8.39738
▁All	-8.39991
At	-8.40009
▁areas	-8.40246
▁external	-8.40612
▁plans	-8.40747
▁implement	-8.40914
▁only	-8.41105
▁y	-8.41164
▁*	-8.41369
▁addition	-8.41465
▁laws	-8.41533
▁overall	-8.41916
▁Equal	-8.41923
▁analytical	-8.42223
▁SpaceX	-8.42522
▁detail	-8.42589
▁feedback	-8.43103
▁med	-8.43135
▁first	-8.43208
▁Business	-8.43322
▁shared	-8.43441
▁vi	-8.43572
▁brand	-8.43577
▁following	-8.43795
▁With	-8.43863
an	-8.43881
▁Operations	-8.43942
▁set	-8.43964
▁area	-8.44277
driven	-8.44356
You	-8.44434
▁York	-8.44548
▁:	-8.45475
id	-8.45481
▁operational	-8.45573
▁achieve	-8.45896
▁risk	-8.46041
▁fr	-8.46173
▁ownership	-8.46203
M	-8.4631
▁vehicle	-8.46318
▁manner	-8.46364
▁results	-8.46409
▁expected	-8.4645
▁r	-8.46485
▁collaborative	-8.46565
▁av	-8.46589
▁least	-8.46698
▁Are	-8.46867
▁businesses	-8.46877
▁assistance	-8.4704
▁procedures	-8.47115
▁improvement	-8.47339
▁Commission	-8.479
able	-8.47904
▁Office	-8.48338
▁City	-8.48464
▁excellent	-8.48725
▁available	-8.48726
▁continue	-8.48918
c	-8.48958
▁Angeles	-8.49009
▁Health	-8.49112
▁between	-8.49345
▁Development	-8.4943
▁access	-8.49739
▁human	-8.50015
▁Covey	-8.50018
▁disabilities	-8.50021
less	-8.50319
▁mindset	-8.5036
▁platforms	-8.50374
▁preferred	-8.50383
▁flexible	-8.50432
▁important	-8.50696
▁daily	-8.50706
▁ways	-8.50815
▁collaborate	-8.50913
side	-8.51062
▁social	-8.51236
▁align	-8.51522
▁consideration	-8.51668
▁constantly	-8.51779
▁reporting	-8.51832
▁model	-8.51869
▁allow	-8.52357
▁everyone	-8.52479
▁Director	-8.52874
▁San	-8.52929
▁Must	-8.53035
▁includes	-8.5321
▁would	-8.53609
▁apply	-8.54031
▁Account	-8.5425
▁Marketing	-8.54274
▁environments	-8.54418
▁group	-8.54474
▁characteristic	-8.54574
▁pets	-8.54604
▁holidays	-8.54767
▁subject	-8.54888
▁player	-8.55049
Senior	-8.55396
▁decision	-8.55483
▁hybrid	-8.55522
▁duties	-8.5595
▁aspects	-8.56001
▁diversity	-8.56343
▁offers	-8.5646
▁Inc	-8.56552
▁during	-8.56715
▁background	-8.5676
▁impactful	-8.57051
▁meaningful	-8.57392
▁Design	-8.57466
▁talent	-8.57482
▁Build	-8.57515
▁th	-8.576
▁Collaborate	-8.57962
▁share	-8.58144
▁been	-8.58208
▁2	-8.58307
▁special	-8.58473
▁companies	-8.5849
▁possible	-8.5862
▁media	-8.58647
▁trends	-8.58665
▁play	-8.58677
▁workforce	-8.58868
▁enable	-8.58934
▁dans	-8.59063
based	-8.59085
▁total	-8.59456
▁require	-8.59484
▁individual	-8.59793
▁players	-8.60325
▁developers	-8.60432
▁power	-8.60454
▁international	-8.60456
▁implementation	-8.60517
de	-8.60543
▁get	-8.60619
▁finance	-8.60917
▁capabilities	-8.61103
▁family	-8.61106
▁strive	-8.61185
est	-8.61262
and	-8.61281
▁enhance	-8.61429
",5,"	-8.61472
▁que	-8.6153
▁Partner	-8.61844
z	-8.61934
▁proactively	-8.61997
▁solving	-8.62122
▁actual	-8.62209
▁architecture	-8.62408
▁Senior	-8.62411
▁delivering	-8.62529
▁direct	-8.62595
▁Range	-8.6264
Farmers	-8.62737
▁maintaining	-8.62746
▁USD	-8.62755
▁stock	-8.62858
▁Technician	-8.62922
▁perks	-8.63013
▁maintenance	-8.63162
▁existing	-8.633
▁others	-8.63498
▁now	-8.63769
▁because	-8.6381
▁passion	-8.63939
▁Cloud	-8.64293
ur	-8.64365
▁Employer	-8.64377
▁M	-8.644
▁continuous	-8.64431
▁priorities	-8.64574
▁Be	-8.64761
▁Pleas	-8.64763
om	-8.65001
▁som	-8.6527
▁hardware	-8.65413
▁advertising	-8.65752
▁everything	-8.65755
▁millions	-8.66072
▁shape	-8.66335
▁address	-8.66404
nt	-8.66489
▁goal	-8.66755
b	-8.6682
ce	-8.67122
As	-8.6714
▁similar	-8.67271
▁find	-8.67672
▁vou	-8.67865
▁trust	-8.67979
▁D	-8.68168
▁Program	-8.68229
▁Riot	-8.68239
▁par	-8.68297
▁serve	-8.68356
▁does	-8.6839
end	-8.68555
▁events	-8.68642
▁rapid	-8.68807
▁clear	-8.68808
ssment	-8.68919
hara	-8.69207
▁passionate	-8.69385
▁these	-8.69438
j	-8.69593
▁applicant	-8.70005
▁communications	-8.70027
▁offices	-8.70903
▁request	-8.7108
▁member	-8.71335
▁space	-8.71461
...	-8.71499
▁managers	-8.71615
▁relationship	-8.71671
▁consistent	-8.72151
▁enjoy	-8.72268
▁core	-8.72281
▁Plan	-8.72313
one	-8.72556
▁wide	-8.72634
▁vehicles	-8.72775
▁specific	-8.72813
▁hands	-8.73167
▁Role	-8.73236
▁sure	-8.73455
▁equivalent	-8.73584
▁How	-8.73665
▁questions	-8.73676
▁stage	-8.73711
ar	-8.7377
▁F	-8.73886
▁meetings	-8.73943
▁au	-8.74417
▁excel	-8.74436
▁vario	-8.74506
▁Google	-8.74574
▁online	-8.74584
▁resources	-8.75065
▁annual	-8.75153
▁mind	-8.75286
▁levels	-8.75363
▁modern	-8.75592
▁commitment	-8.75633
▁operate	-8.75678
▁objectives	-8.75803
▁communicate	-8.75978
▁techniques	-8.76043
▁skill	-8.76148
▁Join	-8.76149
▁influence	-8.76257
▁simple	-8.76357
▁5	-8.76466
▁assigned	-8.76637
▁AWS	-8.76668
▁low	-8.76856
se	-8.77092
▁Do	-8.77222
▁4	-8.77282
▁complete	-8.77331
▁discriminat	-8.77359
▁IT	-8.7741
▁guide	-8.77473
▁criminal	-8.77498
▁holistically	-8.77508
▁policies	-8.77516
▁positive	-8.77553
▁focused	-8.77814
▁ultimate	-8.77978
▁une	-8.78155
▁root	-8.78178
▁control	-8.78189
▁accord	-8.78271
▁exceptional	-8.7829
▁fresh	-8.78412
▁Act	-8.78444
▁reports	-8.78458
▁billion	-8.78487
▁dog	-8.78586
responsibilities	-8.78603
▁determined	-8.78629
▁schedule	-8.78939
p	-8.78945
▁functions	-8.79073
Yes	-8.79078
▁anywhere	-8.79228
▁verbal	-8.79739
▁New	-8.7998
▁proactive	-8.80072
▁retention	-8.80208
▁execute	-8.8044
▁weeks	-8.80445
▁contribute	-8.80561
▁effective	-8.80568
▁essential	-8.80666
▁humans	-8.80699
▁smart	-8.80751
▁real	-8.80875
▁Provide	-8.8098
Work	-8.81067
▁documentation	-8.81146
▁re	-8.81152
▁o	-8.81268
co	-8.8134
▁encourage	-8.81672
▁go	-8.81685
▁travel	-8.81991
▁Science	-8.82145
▁think	-8.82306
quality	-8.82437
▁built	-8.82653
▁Knowledge	-8.82745
▁senior	-8.83482
▁email	-8.83485
ez	-8.83532
▁10	-8.83779
▁programming	-8.83975
▁many	-8.84002
▁worlds	-8.84068
ment	-8.84154
▁Working	-8.84392
▁average	-8.84461
▁lives	-8.8447
▁why	-8.84921
▁revenue	-8.84966
▁perspectives	-8.8497
▁distributed	-8.84971
R	-8.8511
▁implementing	-8.85296
▁forward	-8.85356
▁fastest	-8.85429
▁workflows	-8.85578
▁offered	-8.85604
▁careers	-8.85663
▁countries	-8.85855
▁Additionally	-8.8589
▁regulations	-8.86142
▁additional	-8.86187
▁Vi	-8.86193
▁account	-8.86265
▁8	-8.86327
▁models	-8.86329
ose	-8.86394
▁O	-8.86435
▁leader	-8.86564
day	-8.86656
stry	-8.86829
▁Associate	-8.86829
▁Relativity	-8.8683
▁recruitment	-8.8683
▁scalable	-8.86843
B	-8.87025
▁frameworks	-8.87154
leading	-8.87365
▁report	-8.87448
▁changes	-8.8751
▁Market	-8.87596
▁Familiarity	-8.87675
▁organizations	-8.87694
▁Du	-8.87786
▁Francisco	-8.87811
▁25	-8.88006
level	-8.88245
Strong	-8.88267
▁TFD	-8.88324
▁Python	-8.88329
▁attention	-8.88361
▁rapidly	-8.88478
▁order	-8.88643
▁developer	-8.88658
▁person	-8.88705
▁review	-8.88783
▁progress	-8.88797
▁improvements	-8.88888
▁quickly	-8.88889
▁workplace	-8.89314
▁each	-8.89351
oriented	-8.89386
▁Employee	-8.89484
▁balance	-8.89618
8,"	-8.89781
▁expert	-8.8992
▁amazing	-8.90317
▁proven	-8.90338
▁Microsoft	-8.90351
▁brands	-8.90413
class	-8.90428
▁inform	-8.90479
vec	-8.90501
▁participate	-8.90763
New	-8.91425
▁Finance	-8.9146
▁sets	-8.91468
▁conditions	-8.9156
▁flexibility	-8.91848
▁metrics	-8.91877
▁experts	-8.91886
▁secure	-8.91964
▁Have	-8.92481
nnual	-8.92743
Reddit	-8.92754
▁motivated	-8.9281
▁excellence	-8.92948
▁web	-8.92955
▁hire	-8.93019
▁safe	-8.93091
le	-8.93144
eloton	-8.93218
▁organizational	-8.93816
▁18	-8.93913
▁Neuralink	-8.93924
▁para	-8.9407
▁spirit	-8.94465
ers	-8.94558
▁Salary	-8.94567
▁vo	-8.94843
▁Manage	-8.94965
▁monitoring	-8.95291
▁Base	-8.9547
▁basic	-8.9568
▁month	-8.9574
▁optimize	-8.95801
▁collaborat	-8.9581
▁devices	-8.96069
▁colleagues	-8.96071
▁analytics	-8.96137
▁monthly	-8.96248
ness	-8.96623
▁always	-8.96633
▁Pai	-8.96689
▁regularly	-8.96707
▁active	-8.96711
growing	-8.96758
▁Impact	-8.97131
▁Demonstrate	-8.97175
▁lift	-8.97267
▁cre	-8.97484
▁Bull	-8.97581
▁hours	-8.9763
▁T	-8.97719
▁fitness	-8.97724
▁license	-8.97784
▁changing	-8.9787
▁Global	-8.97879
▁trade	-8.97885
▁Awin	-8.98018
▁owners	-8.98062
▁That	-8.98148
▁start	-8.98149
▁WHOOP	-8.98152
▁run	-8.98186
▁Terran	-8.98209
▁Space	-8.98244
▁feature	-8.98331
▁type	-8.98421
▁generation	-8.98464
▁Drive	-8.98838
▁Pay	-8.9885
▁payment	-8.9893
ant	-8.98971
▁principles	-8.9901
▁Security	-8.99014
▁Career	-8.99087
▁remote	-8.99113
▁submit	-8.9913
▁sur	-8.99161
hose	-8.99177
▁Proven	-8.99291
▁interpersonal	-8.99314
▁against	-8.99324
▁education	-8.99358
▁taking	-8.99449
▁landscape	-8.99481
focused	-8.99573
Hybrid	-8.9964
▁applying	-8.99657
is	-8.99747
▁designing	-8.99764
▁processing	-8.99816
▁recruiting	-8.99927
▁mobile	-9.00033
▁Platform	-9.00075
▁follow	-9.00311
▁payments	-9.00393
ary	-9.00446
▁beyond	-9.00473
▁Excel	-9.00526
▁5+	-9.00556
▁interaction	-9.00556
▁ou	-9.00648
▁v	-9.00681
▁reward	-9.00914
▁assist	-9.00961
▁robust	-9.00975
up	-9.00989
▁expectations	-9.01039
▁risks	-9.01065
▁center	-9.01072
▁limited	-9.01075
scale	-9.01083
▁independently	-9.01085
▁adoption	-9.01171
▁feed	-9.0126
▁making	-9.01291
▁guidance	-9.01582
▁campaigns	-9.01645
▁Executive	-9.01781
▁peace	-9.0212
▁personalized	-9.02142
▁inventory	-9.02145
▁store	-9.02262
being	-9.02375
▁call	-9.02455
▁excite	-9.02567
▁throughout	-9.0262
▁prioritize	-9.02706
▁staff	-9.02885
▁integration	-9.0292
▁automotive	-9.02937
▁Ensure	-9.02947
▁portfolio	-9.03311
▁due	-9.03334
▁science	-9.0351
▁machine	-9.03571
Who	-9.03631
▁Employees	-9.0387
▁Java	-9.04004
▁video	-9.04038
▁small	-9.04343
E	-9.0446
▁meeting	-9.04624
▁depend	-9.0465
▁site	-9.04798
listed	-9.04808
▁back	-9.04966
▁regulatory	-9.05046
▁alignment	-9.05063
▁Area	-9.05103
▁commercial	-9.05132
changing	-9.0542
▁tech	-9.0545
▁resolve	-9.05529
▁transform	-9.05557
▁obtain	-9.05598
▁departments	-9.05642
▁good	-9.05799
▁increase	-9.0585
▁Service	-9.05851
▁cost	-9.05989
▁channels	-9.06037
▁Proficiency	-9.06095
Computer	-9.06301
▁internet	-9.06309
▁demand	-9.06473
▁pre	-9.06725
▁present	-9.06732
▁additive	-9.06789
▁requires	-9.06803
▁standard	-9.0685
▁sell	-9.07098
▁experienced	-9.07131
▁region	-9.07421
▁den	-9.07566
▁language	-9.07596
▁regular	-9.07866
▁values	-9.07893
▁CA	-9.07894
▁discounts	-9.07952
starting	-9.07958
▁prohibit	-9.07987
▁meals	-9.08024
▁leads	-9.08151
▁delivered	-9.08208
▁publications	-9.08319
▁celebrate	-9.08408
▁country	-9.08593
▁reimbursement	-9.08594
▁keep	-9.08636
▁Experian	-9.08864
▁acquisition	-9.08925
▁der	-9.08987
▁Maintain	-9.09202
▁Repair	-9.09202
▁orient	-9.0933
▁structures	-9.09571
▁see	-9.09685
▁Red	-9.0976
▁Bachelors	-9.0977
▁Mateo	-9.09815
▁there	-9.09815
▁since	-9.09828
▁cover	-9.0984
▁Applicants	-9.09863
▁things	-9.0996
▁consumer	-9.10021
▁appropriate	-9.10301
▁timely	-9.10338
▁Atlas	-9.10435
▁vari	-9.10577
▁concepts	-9.10641
▁optimization	-9.10682
▁timelines	-9.10748
▁Financial	-9.11018
▁give	-9.11094
▁true	-9.11128
▁differences	-9.11134
▁healthy	-9.11149
▁exciting	-9.11285
▁purpose	-9.11298
▁Hiring	-9.11428
▁accurate	-9.11537
▁Visa	-9.11599
▁SQL	-9.11657
thefarmersdog	-9.11666
▁stand	-9.11724
Vou	-9.11787
▁consulting	-9.11816
▁direction	-9.11821
▁positions	-9.1212
▁Farmer	-9.12123
▁expand	-9.12126
▁generous	-9.12315
▁guidelines	-9.12322
▁coverage	-9.12331
▁recommendations	-9.1241
▁found	-9.12438
▁computer	-9.12722
▁adapt	-9.12773
MongoDB	-9.12809
▁Identify	-9.12832
▁several	-9.12943
▁US	-9.13172
▁ML	-9.1339
▁Services	-9.13461
making	-9.13575
▁sick	-9.1358
▁L	-9.13764
▁partnership	-9.1382
▁API	-9.1383
▁records	-9.13897
▁made	-9.14005
▁fully	-9.14097
▁still	-9.14167
▁vacation	-9.14232
▁driven	-9.14569
▁games	-9.14701
▁Re	-9.14707
l	-9.14752
▁PTO	-9.14846
▁according	-9.14891
▁w	-9.14901
▁Azure	-9.14942
▁accounting	-9.15035
▁leaders	-9.15214
▁Interns	-9.15277
",2,"	-9.15511
▁KPIs	-9.1577
▁Growth	-9.15813
▁mechanical	-9.15862
▁Whil	-9.15969
▁efficient	-9.16104
▁histories	-9.16169
▁collective	-9.16176
wards	-9.16241
▁read	-9.16267
▁embrace	-9.164
▁Managers	-9.16521
▁write	-9.16591
▁supports	-9.16753
▁dedicated	-9.16835
▁Rioters	-9.16887
▁12	-9.16895
▁vary	-9.16968
▁Vision	-9.17135
▁dig	-9.17147
long	-9.17172
▁allowance	-9.17238
▁action	-9.17245
▁point	-9.17291
cy	-9.17316
ive	-9.17319
▁Fortune	-9.1762
▁accounts	-9.17761
▁offering	-9.17777
▁subscribe	-9.17884
▁current	-9.18039
▁commission	-9.18049
▁groups	-9.18079
lever	-9.18148
▁excluded	-9.18154
▁Unit	-9.18219
▁FX	-9.18278
▁weekends	-9.18286
▁efforts	-9.18366
▁means	-9.18539
▁craft	-9.18608
▁Assist	-9.18618
▁partnerships	-9.18648
▁targets	-9.1868
▁Well	-9.18717
▁Will	-9.18869
▁wellness	-9.18907
▁highest	-9.1896
▁anticipate	-9.19068
▁pipelines	-9.1908
ayfair	-9.19081
ally	-9.19312
▁Healthcare	-9.1953
▁corporate	-9.19585
▁function	-9.19705
▁Best	-9.19722
▁c	-9.19749
▁big	-9.1975
os	-9.19816
omprehensive	-9.19864
▁die	-9.19915
including	-9.19988
▁hypothesis	-9.20195
▁Monday	-9.20256
ther	-9.20296
▁till	-9.20326
▁Spotify	-9.20441
Your	-9.20442
▁public	-9.20487
▁Technical	-9.20702
▁Whe	-9.208
▁reimagine	-9.2088
▁perfect	-9.20906
ies	-9.20928
▁sense	-9.20974
▁abilities	-9.21069
21	-9.21124
▁Learn	-9.21124
▁Digital	-9.21275
▁condition	-9.21394
▁thinking	-9.214
x	-9.2154
▁source	-9.21607
▁Vou	-9.21714
▁Engineers	-9.21736
▁interest	-9.21834
▁benefit	-9.21914
▁sector	-9.22032
▁Discount	-9.22248
▁suppliers	-9.22248
▁worldwide	-9.22287
▁wellbeing	-9.22345
▁early	-9.22772
un	-9.22783
▁bonus	-9.22874
▁fit	-9.22937
▁civil	-9.22937
▁story	-9.22989
▁veterans	-9.23004
▁supportive	-9.23067
▁b	-9.23245
▁Dental	-9.23348
▁document	-9.23504
▁Rights	-9.23668
▁articulate	-9.23694
▁reliable	-9.23722
▁20	-9.24041
▁note	-9.24061
▁consumers	-9.24146
▁locations	-9.24167
▁languages	-9.24216
▁analyze	-9.24296
▁More	-9.2447
▁conduct	-9.24577
P	-9.24821
▁tracking	-9.25055
▁accelerate	-9.25074
▁genuin	-9.25077
▁writing	-9.2512
▁organized	-9.25244
▁comfortabl	-9.25375
▁deadlines	-9.25468
▁roadmap	-9.25495
▁define	-9.25635
▁Abilit	-9.257
▁setting	-9.25773
▁Statement	-9.25813
7,"	-9.25887
▁bringing	-9.25921
▁Customer	-9.25984
▁established	-9.26008
▁via	-9.26119
▁HR	-9.26189
N	-9.26236
▁ecosystem	-9.2625
operating	-9.26481
▁healthcare	-9.26586
▁teammates	-9.26607
emporary	-9.26704
▁Learning	-9.26858
▁course	-9.26963
▁subscription	-9.2699
▁virtual	-9.271
▁Go	-9.27143
▁recruiter	-9.27312
▁energy	-9.27314
▁inspire	-9.2757
▁nos	-9.27574
▁el	-9.27781
▁page	-9.27834
▁broad	-9.27848
▁Planning	-9.2804
5,"	-9.28197
▁og	-9.28401
▁Initiative	-9.28514
as	-9.28628
▁representative	-9.28634
▁possess	-9.28727
▁running	-9.28746
▁integrity	-9.28756
▁funding	-9.28825
▁drives	-9.29016
▁Job	-9.2903
▁ever	-9.29041
▁enabl	-9.29056
/?	-9.29174
▁ethnicit	-9.29187
▁central	-9.29194
▁pipeline	-9.2921
▁Every	-9.29285
▁enterprise	-9.29365
▁further	-9.29472
▁supply	-9.29489
▁Konrad	-9.29501
4,"	-9.29573
▁among	-9.29647
▁Members	-9.29683
▁components	-9.29738
▁50	-9.29793
▁Level	-9.29866
upon	-9.29888
▁materials	-9.2991
▁cases	-9.30142
▁drivers	-9.30234
▁DevOps	-9.30253
▁innovating	-9.30275
▁tool	-9.30448
person	-9.30461
▁Medical	-9.3056
▁Other	-9.30633
▁tooling	-9.3084
▁headquarters	-9.30964
▁custom	-9.31126
▁pe	-9.31126
6,"	-9.31158
▁2+	-9.3153
ity	-9.31658
▁car	-9.31757
▁reviews	-9.31766
▁Acquisition	-9.31777
▁prioritization	-9.31779
▁AFRY	-9.31801
▁effectiveness	-9.3181
▁move	-9.31867
▁Alto	-9.31938
▁reach	-9.31974
03	-9.31995
▁m	-9.32034
▁advance	-9.32445
▁facilities	-9.32515
▁cycle	-9.32593
▁Europe	-9.32778
▁requests	-9.32814
Level	-9.32858
▁forms	-9.32968
▁ready	-9.33004
▁Required	-9.33079
▁resume	-9.33129
▁Directors	-9.3324
▁created	-9.33276
▁pregnancy	-9.3329
▁efficiently	-9.33459
▁mentor	-9.33576
▁gain	-9.33578
Long	-9.33657
▁100	-9.33754
▁form	-9.33884
1,"	-9.33964
2,"	-9.34004
▁BeLocal	-9.34071
▁Department	-9.34071
▁responsibility	-9.34078
▁Native	-9.34083
▁electrical	-9.34094
▁manager	-9.34098
▁categories	-9.34103
▁Competitive	-9.34229
▁Access	-9.34414
▁Reporting	-9.34439
▁matters	-9.34488
▁exist	-9.34513
▁advocate	-9.34674
▁willing	-9.34686
▁determine	-9.347
▁database	-9.3475
▁expect	-9.34781
▁audit	-9.34783
▁retail	-9.3486
▁music	-9.34878
▁har	-9.3491
▁Compensation	-9.34934
▁reliability	-9.35017
CD	-9.35114
Visa	-9.3523
▁identifying	-9.35274
▁talented	-9.35312
",3,"	-9.35651
▁privilege	-9.35652
▁Networks	-9.35783
▁Project	-9.35826
▁Games	-9.36016
▁input	-9.36264
▁ongoing	-9.36475
▁handle	-9.36497
▁EEO	-9.36557
What	-9.36666
▁Bachelor	-9.36748
▁functional	-9.36756
Experian	-9.36875
Yassir	-9.36898
▁fundamental	-9.36979
▁concept	-9.37001
▁mentoring	-9.37049
▁deployment	-9.37086
Excellent	-9.37099
▁methodologies	-9.37251
▁+	-9.37278
▁industries	-9.37284
▁line	-9.37286
▁send	-9.37328
▁zu	-9.37425
▁class	-9.37832
▁considered	-9.37838
▁purchase	-9.37956
▁One	-9.37971
▁check	-9.38019
▁citizenship	-9.38072
starter	-9.3808
▁Analyst	-9.38083
▁before	-9.38094
▁actionable	-9.38099
tre	-9.38104
ted	-9.38191
ction	-9.38265
▁suite	-9.38447
▁packages	-9.38461
Palo	-9.38562
Thi	-9.38571
▁general	-9.38732
▁backgrounds	-9.38742
▁quick	-9.38765
",	-9.38885
▁nurtur	-9.38899
▁empathy	-9.38908
▁States	-9.38979
▁post	-9.39002
▁sharing	-9.39122
▁validate	-9.39131
Collaborate	-9.39383
▁con	-9.39398
▁calls	-9.39494
▁professionally	-9.3955
▁vendors	-9.39754
▁oss	-9.39756
▁Time	-9.39801
▁unit	-9.3992
▁engine	-9.39923
▁resumes	-9.39948
ts	-9.40102
▁compli	-9.40124
▁ask	-9.40168
Company	-9.40185
▁CI	-9.40203
der	-9.40212
▁presentation	-9.40402
▁met	-9.40413
▁response	-9.40442
▁visual	-9.40476
▁executing	-9.40601
▁date	-9.40612
▁outcomes	-9.40655
▁two	-9.40698
▁provided	-9.40745
▁inclusion	-9.40767
▁internationally	-9.40865
▁Requirements	-9.40881
▁assets	-9.41101
Red	-9.41169
▁challenge	-9.41273
▁leverag	-9.41275
▁Perks	-9.41558
te	-9.4207
▁cars	-9.4211
▁WPP	-9.42269
ep	-9.42323
▁minimum	-9.42336
▁options	-9.4237
G	-9.42607
▁face	-9.42704
▁reinvent	-9.42761
▁Key	-9.42823
winning	-9.42872
▁oversee	-9.42996
▁""	-9.43032
▁PELOTON	-9.43092
▁accuracy	-9.43093
age	-9.43112
▁Stock	-9.43137
I	-9.43161
▁Safety	-9.43214
▁Group	-9.43253
▁currently	-9.43276
▁presentations	-9.43315
▁view	-9.43438
▁quipe	-9.43522
▁Preferred	-9.43522
▁seamless	-9.43812
▁repair	-9.43813
▁voice	-9.43814
▁entrepreneurial	-9.43959
▁emerging	-9.43974
▁backend	-9.44054
▁used	-9.44058
▁show	-9.44158
market	-9.44253
3,"	-9.44293
Support	-9.44373
▁release	-9.4445
▁answer	-9.44676
▁Flexi	-9.44787
▁live	-9.44804
el	-9.44846
▁SaaS	-9.44997
▁automated	-9.45016
▁Quality	-9.45088
▁feel	-9.45107
▁awards	-9.45358
▁Parent	-9.45392
▁Boston	-9.45505
▁website	-9.45589
▁wish	-9.4559
▁engage	-9.45622
▁G	-9.45656
▁proper	-9.45691
▁FinTech	-9.45701
▁aerospace	-9.45736
▁above	-9.45754
▁Systems	-9.46179
▁desire	-9.46392
▁Famil	-9.46406
ful	-9.4647
▁prior	-9.46571
▁proficiency	-9.46587
▁Inclusion	-9.46588
▁Strategy	-9.46659
▁messages	-9.46714
▁General	-9.46836
▁Skills	-9.46877
rs	-9.46928
▁co	-9.46945
advanced	-9.47027
▁clean	-9.47029
L	-9.47109
▁table	-9.47245
friendly	-9.47301
▁context	-9.47321
▁campaign	-9.47404
▁est	-9.47467
▁2009	-9.47501
▁become	-9.47722
▁Non	-9.4785
inimum	-9.4789
▁terms	-9.48006
▁costs	-9.48056
▁creation	-9.48081
▁Founde	-9.48252
▁rewarding	-9.48289
.00.	-9.48312
""	-9.48316
▁Specialist	-9.48359
▁disrupt	-9.48385
▁cybersecurity	-9.48417
▁sker	-9.48433
▁Code	-9.48685
▁coul	-9.4871
ons	-9.48732
▁parts	-9.48966
▁establish	-9.49227
▁perspective	-9.49239
▁interact	-9.49271
▁single	-9.4929
San	-9.49297
▁Description	-9.49307
▁Make	-9.49478
▁relations	-9.49582
▁rights	-9.49691
▁Un	-9.49768
ized	-9.49993
▁vot	-9.50098
▁Ex	-9.50098
▁rocket	-9.50111
▁Create	-9.50117
▁confidential	-9.50168
▁adjust	-9.50213
▁Perform	-9.50347
▁High	-9.50348
▁tests	-9.50388
▁Life	-9.50406
▁se	-9.50441
▁schedules	-9.50448
▁Own	-9.50477
▁talk	-9.50526
▁personally	-9.50871
all	-9.51018
Pilot	-9.51094
▁fairness	-9.51141
▁Creativity	-9.51151
▁reality	-9.51159
9,"	-9.51226
▁wir	-9.51275
▁W	-9.5134
▁constant	-9.51374
facing	-9.51376
▁California	-9.5143
▁sustain	-9.51896
Flexible	-9.51903
Compensation	-9.5195
▁State	-9.52023
▁industrial	-9.52035
▁Technology	-9.52069
▁succeed	-9.5207
▁chain	-9.52117
▁months	-9.52132
▁Focus	-9.52141
▁Jobs	-9.5215
▁conversations	-9.52186
▁begin	-9.52283
▁Execute	-9.52325
Maintain	-9.52535
▁And	-9.52859
rrest	-9.52867
▁advantage	-9.52975
▁keen	-9.53023
▁extensive	-9.53026
▁Friday	-9.53028
▁activity	-9.53037
▁convi	-9.5304
▁Inspection	-9.5304
▁Auto	-9.53059
▁initial	-9.53121
▁globally	-9.53173
Develop	-9.53245
Ebury	-9.53834
primary	-9.53882
▁brings	-9.53999
▁cash	-9.54051
▁American	-9.54078
▁Love	-9.54126
▁gett	-9.54198
▁Mars	-9.54213
Responsible	-9.54216
▁troubleshooting	-9.54285
▁engineer	-9.5473
▁charge	-9.54738
▁om	-9.54763
consumer	-9.54869
▁innovators	-9.54943
▁delight	-9.54969
▁lifecycle	-9.55011
▁REQUIREMENTS	-9.55013
▁bug	-9.55017
▁Participate	-9.55055
▁shift	-9.55059
▁offerings	-9.55527
▁lover	-9.5576
▁Contribute	-9.55796
▁humanity	-9.55928
Provide	-9.5593
▁Diversity	-9.55945
▁2023	-9.55947
▁Home	-9.55972
ra	-9.56025
▁Sal	-9.56059
▁force	-9.56205
process	-9.56402
▁Client	-9.56467
▁audiences	-9.56586
Employment	-9.56681
▁Full	-9.5671
▁Fr	-9.56744
▁dependent	-9.5676
▁integrations	-9.56804
life	-9.5682
SpaceX	-9.5682
▁certification	-9.56852
nd	-9.5686
takers	-9.56872
▁lot	-9.56874
▁Stroll	-9.56875
▁hand	-9.56884
▁nous	-9.56904
▁challenging	-9.56914
▁logistics	-9.5697
▁supported	-9.56984
▁Research	-9.57053
▁parents	-9.57155
▁valid	-9.57422
▁Expertise	-9.57424
▁stack	-9.57494
▁demonstrate	-9.57616
▁fields	-9.57652
▁Purchas	-9.57656
▁discipline	-9.57679
▁fintech	-9.57834
▁device	-9.57842
▁unleash	-9.57864
▁n	-9.57868
",1,"	-9.57871
",4,"	-9.57872
Sopra	-9.57878
▁short	-9.57893
lyft	-9.57901
▁scalability	-9.57907
ation	-9.57916
▁com	-9.58028
▁Count	-9.58393
wide	-9.58568
▁Schedule	-9.58569
▁lega	-9.58706
u	-9.58792
▁confirm	-9.58805
carvana	-9.58855
konrad	-9.58855
spacex	-9.58857
▁Delivery	-9.58858
▁hyper	-9.58863
▁transparency	-9.58865
gilvy	-9.58888
▁disciplines	-9.58903
▁Industry	-9.58905
▁pricing	-9.58926
▁Know	-9.58954
▁vendor	-9.58961
app	-9.5897
frog	-9.5898
▁heart	-9.59013
▁Kubernetes	-9.59046
▁room	-9.59084
▁6	-9.59226
▁Come	-9.59455
▁performing	-9.59479
▁department	-9.59485
AND	-9.5952
▁discretion	-9.59526
ng	-9.59541
▁doors	-9.59552
▁times	-9.59687
▁markets	-9.59777
▁ride	-9.59783
▁app	-9.59822
▁holistic	-9.59853
▁difficult	-9.59875
▁compelling	-9.59875
▁Inbound	-9.59877
▁solution	-9.59922
▁QA	-9.60048
▁Leave	-9.60084
▁major	-9.6013
▁X	-9.60137
▁onboarding	-9.60173
▁Developer	-9.60176
▁paint	-9.60474
J	-9.60595
ical	-9.60614
▁Conduct	-9.60696
▁del	-9.60705
▁honest	-9.60758
BoschGroup	-9.6088
▁cutting	-9.60947
▁innovate	-9.60958
▁translate	-9.61076
▁monitor	-9.61146
▁transformation	-9.61163
▁represent	-9.61449
▁Where	-9.61678
sized	-9.61697
▁boundaries	-9.61927
▁modified	-9.61927
▁delightful	-9.61933
▁significant	-9.61959
▁capacity	-9.61977
▁Salesforce	-9.62032
▁Dashers	-9.62033
▁London	-9.62067
at	-9.62386
▁uns	-9.62534
F	-9.62744
▁Paulo	-9.62967
▁Offer	-9.63035
▁practice	-9.63068
▁actions	-9.63121
▁student	-9.63172
▁Because	-9.63178
▁respect	-9.63482
▁Network	-9.63524
eller	-9.6377
▁preferabl	-9.64018
▁evolve	-9.64026
▁headquarter	-9.64046
▁investment	-9.64111
▁UK	-9.64127
▁speak	-9.64283
▁Remote	-9.64311
▁Starlink	-9.64317
▁credit	-9.64359
▁teamwork	-9.64425
▁mit	-9.64469
▁hard	-9.64511
reddit	-9.64522
▁connections	-9.64747
▁sources	-9.64753
▁confident	-9.6496
▁hypotheses	-9.65084
▁amount	-9.65095
▁optimizing	-9.6512
▁g	-9.65143
▁warehouse	-9.65153
▁Degree	-9.65249
▁seamlessly	-9.6526
Ensure	-9.65304
▁evolving	-9.65333
▁coaching	-9.65367
TAR	-9.6542
▁sponsor	-9.65482
sales	-9.65548
▁Th	-9.65643
▁designers	-9.6565
6	-9.65788
▁regions	-9.65857
▁America	-9.66051
▁fair	-9.66098
▁em	-9.66128
▁exclusive	-9.6616
▁identities	-9.6616
▁authenticity	-9.66168
▁UX	-9.66179
▁keeping	-9.66196
▁supplier	-9.66227
▁discount	-9.66229
▁ERP	-9.66341
Must	-9.66351
▁scope	-9.66352
▁cultivat	-9.66478
inc	-9.66486
▁clearly	-9.66533
▁even	-9.66697
▁providers	-9.66731
▁modeling	-9.66915
▁fulfill	-9.67022
▁ServiceNow	-9.67027
▁gr	-9.67184
▁presence	-9.67248
▁intersection	-9.67263
▁Use	-9.67281
0,"	-9.67286
▁Commitment	-9.6729
▁agile	-9.67329
▁shifts	-9.67332
▁letter	-9.67333
▁interface	-9.67435
Bull	-9.67443
of	-9.67461
▁Field	-9.67485
▁updates	-9.67593
▁im	-9.67755
▁aux	-9.67798
▁won	-9.6783
▁hear	-9.68213
▁hundred	-9.68344
▁Transparency	-9.68345
▁happen	-9.68363
▁YOU	-9.68366
▁topics	-9.68387
▁rooms	-9.68423
▁patterns	-9.68435
▁Wer	-9.68453
▁regional	-9.68462
▁jobs	-9.68529
motivated	-9.68554
▁controls	-9.6861
ble	-9.68661
▁continuously	-9.68752
▁relat	-9.68769
▁shop	-9.69018
▁Ab	-9.69245
orderless	-9.69309
▁endeavor	-9.69456
▁reusable	-9.69456
▁history	-9.69459
▁welcome	-9.6949
▁cities	-9.69498
▁interpret	-9.69501
▁hourly	-9.69556
▁particular	-9.69572
▁four	-9.69592
▁fall	-9.69606
▁Nice	-9.69622
▁leverage	-9.69649
▁accordingly	-9.69719
▁Us	-9.69736
▁demonstrat	-9.70024
▁organisation	-9.70111
4+	-9.70322
▁phone	-9.70351
▁Co	-9.70565
ops	-9.70622
▁Greet	-9.70631
power	-9.7071
▁category	-9.70715
▁push	-9.7073
▁openings	-9.70783
▁Apply	-9.7088
domestic	-9.70902
tion	-9.7095
▁travail	-9.7101
▁foundation	-9.71032
▁Care	-9.71111
▁builds	-9.71126
▁replac	-9.71141
▁H	-9.71346
▁satisfaction	-9.71718
▁studies	-9.71728
▁school	-9.71782
▁friendly	-9.71929
needed	-9.71971
Steria	-9.72049
actively	-9.72269
▁balanced	-9.72314
▁Solutions	-9.7236
▁budget	-9.72485
the	-9.72523
▁plays	-9.72564
very	-9.72623
ch	-9.72637
h	-9.7276
▁combination	-9.72871
▁third	-9.72879
▁Period	-9.72886
▁everywhere	-9.72887
▁recognise	-9.72933
▁parallel	-9.72956
▁Mental	-9.72966
▁Manufacturing	-9.73008
▁orders	-9.73016
▁explore	-9.73059
▁selling	-9.73097
▁Creative	-9.7324
▁navigat	-9.73432
▁Hands	-9.735
▁contract	-9.73503
▁Fix	-9.73555
▁Employers	-9.73559
▁invest	-9.73726
yberark	-9.73753
am	-9.73756
iv	-9.73776
▁units	-9.73777
▁kan	-9.73842
▁hav	-9.73851
5	-9.73866
▁last	-9.74001
▁companions	-9.74028
▁easily	-9.74031
▁minimiz	-9.74044
▁Free	-9.74085
▁behavior	-9.741
▁Accommodations	-9.74141
stead	-9.74184
▁medium	-9.74208
Hero	-9.74403
▁90	-9.74439
▁Yassir	-9.74512
▁prevent	-9.74522
▁handling	-9.74571
▁pro	-9.74633
▁recognize	-9.74666
▁Tech	-9.74674
▁Great	-9.74688
▁ein	-9.74912
▁Understanding	-9.75055
▁Play	-9.75072
▁Help	-9.75093
▁integrate	-9.75126
▁shepherd	-9.75205
▁preparation	-9.7521
engineer	-9.75233
▁No	-9.75241
isabled	-9.75349
▁React	-9.75365
▁movement	-9.75383
▁Analysts	-9.75499
▁Culture	-9.75543
▁Master	-9.756
▁tes	-9.75616
▁38	-9.75644
made	-9.7565
eu	-9.75808
▁detailed	-9.75986
▁click	-9.76042
▁save	-9.76109
solicited	-9.7618
hold	-9.76307
ont	-9.76308
▁skeptical	-9.76394
▁Recognition	-9.76395
▁bags	-9.76403
▁Da	-9.76409
▁born	-9.76417
▁result	-9.76424
▁vra	-9.76466
▁front	-9.76503
▁jour	-9.76503
▁holiday	-9.76546
functionally	-9.76578
▁invested	-9.76602
▁missions	-9.76645
llets	-9.76771
Live	-9.76845
impact	-9.7701
Dogs	-9.77032
▁qualify	-9.77047
▁award	-9.771
be	-9.77219
ever	-9.77239
▁unlock	-9.77383
4	-9.77433
▁operation	-9.77508
▁decade	-9.77602
▁--	-9.77654
.)	-9.77676
All	-9.77771
▁component	-9.77783
▁interests	-9.77868
▁los	-9.7789
▁affiliate	-9.77946
▁databases	-9.77994
▁independent	-9.78035
Dog	-9.78074
▁engines	-9.78075
▁doing	-9.78172
▁Strategic	-9.78315
▁Wellness	-9.78358
Abilit	-9.78516
house	-9.78747
RESPONSIBILITIES	-9.78812
▁Canada	-9.78818
▁Philosophy	-9.78819
▁silo	-9.78823
▁dis	-9.78885
▁II	-9.78886
▁Stand	-9.7893
▁series	-9.78946
res	-9.7898
▁step	-9.79045
selves	-9.79059
▁methods	-9.79068
▁ad	-9.79074
▁designs	-9.79148
▁Assistant	-9.79179
▁guest	-9.79188
competitive	-9.79191
accommodations	-9.79269
Hiring	-9.79282
Devoteam	-9.79309
▁Complete	-9.794
▁executive	-9.79429
▁Programs	-9.79483
export	-9.79527
▁card	-9.79632
▁requir	-9.79683
▁fee	-9.7972
▁APIs	-9.7985
▁case	-9.79959
QUALIFICATIONS	-9.80043
▁MS	-9.80058
▁raise	-9.8008
++	-9.80105
▁networking	-9.80145
▁det	-9.80281
▁pup	-9.80292
▁GCP	-9.80324
▁environnement	-9.80344
▁Leadership	-9.80354
Ubisoft	-9.80484
▁Enthusiastic	-9.80484
thinking	-9.80583
▁benchmarks	-9.80598
▁Consultant	-9.80599
▁rare	-9.80665
▁Able	-9.80775
ca	-9.80782
tant	-9.80867
▁rig	-9.81123
eating	-9.81162
▁magneti	-9.81302
▁violence	-9.81303
▁nothing	-9.81309
▁Marketers	-9.8136
▁communicator	-9.81379
▁compare	-9.81391
▁retirement	-9.81411
▁creators	-9.8148
▁UI	-9.81491
▁marketplace	-9.81545
▁million	-9.81598
▁commute	-9.81629
Manage	-9.81732
first	-9.81789
promotions	-9.81897
▁led	-9.81994
▁professionals	-9.82149
sm	-9.82213
▁exceed	-9.82228
▁span	-9.82371
▁turn	-9.825
▁Guidelines	-9.82569
▁certain	-9.82572
▁permanent	-9.82573
▁possibilities	-9.82576
▁rather	-9.82586
▁evaluate	-9.82652
▁shaping	-9.82798
ion	-9.82803
▁integrated	-9.82876
▁Assistance	-9.82905
▁Action	-9.83033
▁CV	-9.8307
▁facilitate	-9.83134
Ou	-9.83271
▁2024	-9.8337
▁Accounting	-9.83373
ested	-9.83373
▁Automotive	-9.83542
▁guid	-9.83726
▁Professional	-9.83792
▁relentless	-9.83851
▁fertilit	-9.83852
▁autonomy	-9.83854
with	-9.83858
▁protection	-9.83968
▁forecasting	-9.84089
▁Idea	-9.8409
▁operates	-9.84206
▁anyone	-9.84245
▁flow	-9.8426
▁pass	-9.84267
▁driver	-9.84324
cloud	-9.84396
▁Candidate	-9.84685
▁They	-9.84964
▁iterative	-9.85
▁reject	-9.85049
▁TOGETHER	-9.85149
▁sponsorship	-9.85162
▁yourself	-9.85162
▁especial	-9.85174
▁common	-9.85247
▁Thank	-9.85254
▁Though	-9.85311
▁Proactively	-9.85534
▁collaboratively	-9.85718
▁art	-9.85761
▁interrupt	-9.85773
To	-9.85823
▁Process	-9.85828
▁Communicate	-9.8587
Team	-9.8587
▁event	-9.8605
▁uninter	-9.86338
▁App	-9.86394
▁Gener	-9.86418
▁LinkedIn	-9.86465
▁ambiguity	-9.86465
▁ambitious	-9.86478
▁Talent	-9.86489
imilarly	-9.86518
▁Supply	-9.86543
▁Agile	-9.86601
▁motion	-9.86605
▁Through	-9.86608
▁solver	-9.86633
▁Meet	-9.86679
▁act	-9.86718
▁bei	-9.86741
▁Android	-9.86783
▁qualification	-9.86798
technical	-9.86888
ental	-9.86906
▁Establish	-9.86954
▁findings	-9.86981
Knowledge	-9.87106
it	-9.87134
▁Test	-9.8714
▁CyberArk	-9.87235
▁spot	-9.87336
▁nation	-9.87365
▁goods	-9.87426
Zoom	-9.87486
▁Sc	-9.87502
▁interactions	-9.87595
et	-9.87727
▁accessibility	-9.87799
▁Glassdoor	-9.87799
▁analyzing	-9.87825
nterprise	-9.87841
▁administration	-9.87854
taff	-9.87889
▁items	-9.87924
OUT	-9.87981
▁sequence	-9.88112
▁franchise	-9.88114
▁Mechanical	-9.88222
▁na	-9.88228
▁poste	-9.88266
Un	-9.88317
rmative	-9.88371
pressure	-9.88524
▁$150	-9.88586
Du	-9.88646
K	-9.88652
▁animation	-9.88729
▁Monro	-9.88771
▁unsere	-9.88787
▁main	-9.88803
▁grows	-9.89148
▁Belonging	-9.8915
▁Site	-9.89256
▁another	-9.89263
▁loan	-9.89267
▁nights	-9.89387
▁repairs	-9.89398
▁30	-9.89399
▁Solid	-9.89423
▁serving	-9.89454
▁auf	-9.89462
▁analyses	-9.89477
refore	-9.89528
▁workloads	-9.89806
▁successfully	-9.89993
▁Affi	-9.90091
▁On	-9.90182
▁EEOC	-9.90331
▁commit	-9.90478
▁privacy	-9.90515
▁happiness	-9.9052
oder	-9.90528
▁comptences	-9.9056
▁Results	-9.9057
▁frequently	-9.90575
▁exploring	-9.90578
▁extra	-9.90633
▁algorithms	-9.9065
▁f	-9.90692
▁targeted	-9.90726
▁Infrastructure	-9.90736
▁bi	-9.90764
▁entire	-9.90781
▁quipes	-9.9082
▁procurement	-9.90927
▁contribut	-9.90973
▁Communication	-9.90987
▁transactions	-9.90998
▁communicat	-9.91062
▁protect	-9.91084
generation	-9.91265
dvanced	-9.91453
Perform	-9.91562
▁resto	-9.91816
▁completion	-9.91914
▁Green	-9.9194
▁globe	-9.91956
kept	-9.9196
▁roll	-9.92099
▁Commut	-9.92127
▁traditional	-9.92161
▁75	-9.92226
▁technique	-9.92268
▁Application	-9.92379
▁manual	-9.92384
▁encouraged	-9.92706
deadlines	-9.92723
▁channel	-9.92741
▁giv	-9.9276
performing	-9.92807
▁closing	-9.92847
▁target	-9.93037
▁accomplish	-9.93079
▁Check	-9.93232
▁crucial	-9.93316
▁authentic	-9.93316
▁handicap	-9.93316
▁productivity	-9.93322
▁concerns	-9.93395
▁Bonus	-9.93429
▁depth	-9.9348
▁mutual	-9.93502
que	-9.93507
▁defining	-9.93532
▁JavaScript	-9.93544
▁engaging	-9.93628
▁sein	-9.93692
▁merchant	-9.93712
▁Comfortable	-9.93738
▁initiative	-9.93755
O	-9.93804
▁Self	-9.93824
▁Performance	-9.93871
▁courses	-9.93884
▁enrich	-9.93913
▁Machine	-9.94017
▁Ubisoft	-9.94132
Internship	-9.94169
▁NBCUniversal	-9.942
spotify	-9.94736
▁pivot	-9.94745
▁pounds	-9.94747
▁Unique	-9.94749
▁simultaneously	-9.94751
▁brain	-9.94793
▁entry	-9.94805
▁five	-9.94837
▁Legal	-9.94857
▁skapa	-9.9486
AL	-9.94935
▁Community	-9.94977
▁Advertising	-9.95063
▁MA	-9.95143
▁Define	-9.95178
▁attitude	-9.95196
▁Dubai	-9.95204
▁Automation	-9.9528
▁Palo	-9.95307
▁Days	-9.95448
▁approaches	-9.95504
easonabl	-9.95606
▁points	-9.95634
▁executives	-9.9596
▁V	-9.96071
▁rich	-9.96109
▁unlawful	-9.96194
▁Government	-9.96196
▁pays	-9.96248
▁samt	-9.96285
▁promotional	-9.9629
▁deliverables	-9.96329
▁CRM	-9.96336
▁Corporate	-9.96375
for	-9.96413
▁details	-9.9649
▁let	-9.96563
▁promotion	-9.96602
▁van	-9.9665
▁Centers	-9.96657
ily	-9.96664
tech	-9.96667
▁Compliance	-9.96668
▁Deep	-9.96722
▁quo	-9.96827
▁gather	-9.96859
edge	-9.96883
growth	-9.96923
▁trusted	-9.97071
specific	-9.97095
▁K	-9.97149
▁te	-9.97168
work	-9.97241
▁ve	-9.97317
standing	-9.97633
▁GraphQL	-9.97664
▁ambiguous	-9.97664
▁creativity	-9.97666
▁Academy	-9.97668
▁exposure	-9.97668
▁recommend	-9.97678
▁Analytics	-9.97773
▁junior	-9.97869
▁premises	-9.97902
▁restaurant	-9.98125
▁Monitor	-9.98162
):	-9.98181
▁associate	-9.98248
▁Wed	-9.98263
ler	-9.98429
week	-9.98456
▁stay	-9.98533
▁Designer	-9.98562
embedded	-9.98599
▁Partners	-9.98646
ssumption	-9.98757
▁near	-9.98764
min	-9.9887
▁Chil	-9.98933
▁thorough	-9.99012
▁geographical	-9.99056
eyond	-9.99097
▁domain	-9.99133
disciplinary	-9.99142
▁Facebook	-9.99215
▁internally	-9.99269
In	-9.99364
▁Part	-9.99369
▁incentives	-9.99409
▁qualit	-9.99448
▁arbeta	-9.99479
▁parties	-9.995
▁tltravail	-9.9952
▁Proficient	-9.99547
▁scheme	-9.99606
▁champion	-9.99634
▁expense	-9.9964
▁audits	-9.99655
▁7	-9.99776
hr	-9.9984
2025	-9.99921
manager	-9.99963
oting	-9.99963
Be	-10.0012
▁coordinate	-10.0024
▁das	-10.0027
▁relation	-10.0041
▁Not	-10.0056
▁21	-10.0061
▁enough	-10.0068
",7,"	-10.0069
▁membership	-10.007
▁quantitative	-10.0071
▁territory	-10.0073
▁authorization	-10.0076
▁floor	-10.0082
▁assembly	-10.0087
▁past	-10.009
▁intelligence	-10.01
▁Bring	-10.0109
▁premium	-10.0117
il	-10.0119
▁started	-10.0121
▁Integration	-10.0123
▁sizes	-10.0125
▁connection	-10.0126
▁Oversee	-10.0128
3-	-10.0142
▁mid	-10.0156
▁qui	-10.0169
▁attend	-10.017
Office	-10.017
Remote	-10.0176
▁celebrat	-10.0187
▁19	-10.0203
wich	-10.0212
▁barriers	-10.0221
▁groundbreaking	-10.0221
▁messaging	-10.0221
▁classic	-10.0223
▁promoting	-10.0225
▁Information	-10.0231
▁orbit	-10.0238
▁rockets	-10.0238
▁People	-10.0239
▁curate	-10.0243
▁reduce	-10.0249
▁free	-10.0252
▁Collaboration	-10.0253
▁engagements	-10.0258
▁ser	-10.0258
from	-10.027
▁News	-10.027
▁startup	-10.0277
▁15	-10.028
▁pressure	-10.0292
abled	-10.0297
▁stocked	-10.0305
▁eine	-10.0325
vid	-10.0328
▁stronger	-10.033
▁Track	-10.0331
▁super	-10.036
▁posting	-10.0362
▁smooth	-10.0363
▁diversit	-10.0366
▁af	-10.0369
den	-10.0374
ually	-10.0376
▁iconic	-10.0377
▁consistency	-10.0377
Lead	-10.038
▁visa	-10.038
▁Latin	-10.038
▁balancing	-10.0381
▁vill	-10.0383
▁destination	-10.0384
▁arise	-10.0385
▁kunder	-10.0387
▁higher	-10.0389
▁Insights	-10.039
▁sessions	-10.0391
▁Germany	-10.0395
▁man	-10.0397
▁Here	-10.0404
▁networks	-10.041
▁hour	-10.0414
▁maximize	-10.042
▁Meal	-10.0426
commerce	-10.0427
▁validation	-10.0432
▁framework	-10.0433
▁experiments	-10.044
cited	-10.0444
▁differently	-10.0458
Sales	-10.0486
▁11	-10.0489
▁excit	-10.0497
▁Of	-10.0497
Alto	-10.0504
▁prospect	-10.0507
▁k	-10.0518
paid	-10.0518
ge	-10.0522
fr	-10.0532
La	-10.0534
▁LGBTQ	-10.0536
▁Instagram	-10.0536
▁transportation	-10.0537
ut	-10.0537
▁HQ	-10.0542
▁after	-10.0543
▁magazines	-10.0551
▁Connect	-10.056
▁Partnerships	-10.0562
site	-10.0564
▁holder	-10.0567
▁contingen	-10.0571
-03	-10.0577
▁sub	-10.0582
▁exercise	-10.0584
▁late	-10.0585
▁Advance	-10.0595
▁documents	-10.0632
▁Toronto	-10.0632
▁Continuous	-10.0633
▁Take	-10.0641
8	-10.0659
Good	-10.0661
limited	-10.0677
▁BI	-10.0683
▁solid	-10.0693
▁So	-10.0696
▁Sa	-10.0696
▁military	-10.0697
▁Tuesday	-10.07
▁experimentation	-10.0701
▁copy	-10.0703
▁certifications	-10.0705
▁Need	-10.0705
▁Abo	-10.0707
▁maintainable	-10.0716
▁prepared	-10.0719
▁gestion	-10.0719
▁Advocate	-10.072
▁restrict	-10.0723
▁resolution	-10.073
▁optimis	-10.0737
▁learners	-10.0752
▁lbs	-10.0753
2","	-10.0754
▁audience	-10.0756
▁structured	-10.0757
▁dveloppement	-10.0758
▁relational	-10.0762
▁iterate	-10.0766
5+	-10.0771
▁rely	-10.0772
▁occasional	-10.0786
Train	-10.0788
▁candidature	-10.0793
▁Head	-10.0795
▁ID	-10.0808
nde	-10.0813
Wayfair	-10.0817
centric	-10.0828
▁sites	-10.0839
▁leur	-10.0842
▁warehouses	-10.0854
▁Companies	-10.0861
▁Reimbursement	-10.0861
▁um	-10.0864
▁walk	-10.0867
▁familiarity	-10.0868
▁awareness	-10.0869
▁Serve	-10.087
board	-10.0872
▁Fro	-10.0878
▁Today	-10.0887
▁door	-10.0901
▁paths	-10.0906
▁outsi	-10.0916
▁inspection	-10.0925
▁achiev	-10.0949
▁weekly	-10.0955
ry	-10.0969
Build	-10.0973
▁Pa	-10.0982
401	-10.0986
ting	-10.0987
▁AD	-10.0996
▁deploy	-10.0997
Networks	-10.1003
▁incident	-10.1003
▁partnering	-10.1005
▁owner	-10.1011
vez	-10.1016
▁deal	-10.1018
▁je	-10.1025
▁far	-10.1027
▁WARC	-10.1028
▁agencies	-10.1028
▁transparent	-10.1028
▁snacks	-10.1029
IA	-10.1032
▁highlight	-10.1033
▁accountability	-10.1036
▁extended	-10.1037
▁erfarenhet	-10.1037
▁visitors	-10.104
▁administrative	-10.1042
▁scaling	-10.1045
Grow	-10.1046
▁Ju	-10.1046
▁coordination	-10.1047
▁involved	-10.1048
▁Good	-10.1065
▁thriv	-10.1066
▁revolutionize	-10.1069
▁Deliver	-10.1077
▁agents	-10.108
▁conform	-10.108
▁respond	-10.108
▁Intern	-10.1088
liv	-10.1088
▁display	-10.1089
▁uplift	-10.1093
Q	-10.1104
▁Leverag	-10.1106
▁Thursday	-10.1107
▁projets	-10.1112
Week	-10.1113
▁measure	-10.1115
demand	-10.1116
▁achievement	-10.1119
▁su	-10.1122
▁Evidensia	-10.1124
▁cold	-10.1142
▁Communications	-10.1157
▁De	-10.1159
▁Noti	-10.116
ute	-10.1183
▁stipend	-10.1197
▁tomorrow	-10.1197
▁Success	-10.1198
▁administer	-10.1198
▁Actual	-10.1199
▁foot	-10.1199
▁lunches	-10.1199
▁eight	-10.1202
▁J	-10.1202
▁Chain	-10.1209
Doordash	-10.1212
▁Angular	-10.1215
▁Flexibility	-10.1225
▁utiliz	-10.1231
▁France	-10.1247
▁eye	-10.1247
▁ethic	-10.1257
▁din	-10.1258
▁thought	-10.1262
▁asset	-10.1275
uition	-10.1275
▁consultati	-10.1283
▁purposes	-10.1306
▁toute	-10.1313
mos	-10.1316
▁upload	-10.1325
th	-10.1331
Roblox	-10.1331
uck	-10.1336
AWS	-10.1341
▁prioritizes	-10.1343
▁characteristics	-10.1343
London	-10.1343
▁Bo	-10.1348
▁received	-10.1363
▁interfaces	-10.1367
▁Earth	-10.137
▁diploma	-10.137
▁merit	-10.137
",6,"	-10.1372
▁grna	-10.1373
▁Admin	-10.1374
▁sind	-10.1377
Life	-10.138
▁7+	-10.1388
▁accept	-10.1393
▁Detail	-10.1395
▁promote	-10.1399
▁considerations	-10.1409
Design	-10.1411
▁natural	-10.1421
▁covered	-10.1422
▁Position	-10.1432
▁cant	-10.1437
▁description	-10.1441
▁artists	-10.1443
ody	-10.1446
▁;	-10.145
▁measur	-10.1457
▁PM	-10.1466
▁speed	-10.1467
store	-10.1471
▁mean	-10.1472
▁Social	-10.1474
▁IVC	-10.1478
▁possibl	-10.1479
▁aligned	-10.1483
▁incidents	-10.149
▁restaurants	-10.1494
js	-10.1509
▁pr	-10.1513
▁Building	-10.1518
▁immersi	-10.1522
depth	-10.1524
Pay	-10.1531
▁budgets	-10.1533
▁add	-10.1537
▁otherwise	-10.1545
▁birthday	-10.1545
▁Beach	-10.1546
▁competence	-10.155
▁June	-10.155
▁promise	-10.1555
▁Coordinator	-10.1556
▁Big	-10.1558
▁rad	-10.1559
▁Washington	-10.1559
▁Administration	-10.1563
▁printing	-10.1569
▁continu	-10.1571
▁Linux	-10.1577
▁iOS	-10.1582
▁green	-10.1597
ne	-10.1607
▁carrier	-10.1614
▁Control	-10.1626
▁structure	-10.1643
▁fly	-10.1648
▁Real	-10.1663
▁ven	-10.1664
▁statement	-10.1664
▁nr	-10.1671
Des	-10.1683
▁operat	-10.1686
Know	-10.1706
Adoption	-10.1707
▁USDA	-10.171
▁ha	-10.1717
▁govern	-10.1718
conforming	-10.1723
▁gym	-10.1723
▁Black	-10.1724
▁Equity	-10.1724
▁Colorado	-10.1724
▁correspondence	-10.1724
▁outgoing	-10.1724
▁Outings	-10.1724
▁Expected	-10.1726
▁Analysis	-10.1728
▁tax	-10.1734
▁peer	-10.1735
▁availability	-10.1738
pm	-10.1739
▁inter	-10.174
▁clinical	-10.1741
▁Headquarters	-10.1742
▁North	-10.1743
7	-10.1751
25	-10.1752
▁African	-10.1752
▁bla	-10.1756
PM	-10.1762
▁Production	-10.1764
▁heav	-10.1766
▁comment	-10.1783
▁Passion	-10.1787
une	-10.1795
▁aware	-10.1803
▁flight	-10.1809
▁Wednesday	-10.1812
▁Ro	-10.1815
data	-10.1816
▁prospects	-10.183
▁peers	-10.1831
▁character	-10.1838
▁exprience	-10.1843
▁architectures	-10.1847
call	-10.1851
H	-10.1851
▁User	-10.1856
▁Cal	-10.1857
V	-10.1868
▁appreciate	-10.1884
AFRY	-10.1888
senior	-10.1888
▁friends	-10.1905
▁August	-10.1905
▁Hawaii	-10.1905
▁trailblaz	-10.1905
▁Privacy	-10.1906
▁consultancy	-10.1906
▁uncover	-10.1906
ctively	-10.1907
▁government	-10.191
▁scheduling	-10.1911
▁curious	-10.1913
▁Docker	-10.1916
▁Balance	-10.192
▁fun	-10.1924
▁volume	-10.1925
▁jurisdictions	-10.1928
▁facing	-10.1937
▁uvre	-10.194
▁Institut	-10.194
▁CAD	-10.1947
Mart	-10.1951
▁designed	-10.1954
▁Onsite	-10.1957
▁detect	-10.1958
▁24	-10.1959
▁collections	-10.1974
▁cycles	-10.1974
▁distribution	-10.1982
▁telephone	-10.1986
▁audaci	-10.1995
ii	-10.1996
▁preci	-10.2
▁En	-10.2002
▁residents	-10.2003
▁Store	-10.2007
▁lo	-10.2011
▁Suite	-10.2034
▁exemp	-10.2035
db	-10.2041
Every	-10.2053
▁rank	-10.2053
around	-10.2068
protection	-10.2075
▁tolerance	-10.2075
▁discuss	-10.2076
expression	-10.2077
cin	-10.2082
direction	-10.2087
driving	-10.2088
▁Hispanic	-10.2091
▁economies	-10.2091
▁payloads	-10.2094
▁belonging	-10.2096
▁sourcing	-10.2098
▁eligibility	-10.2098
▁mentorship	-10.2098
▁Therefore	-10.2099
▁specifications	-10.21
▁quarterly	-10.2101
▁complexity	-10.2106
▁800	-10.2111
ba	-10.2111
▁situations	-10.2115
reasonabl	-10.2115
▁REST	-10.2117
▁tens	-10.2125
▁personas	-10.2127
▁Workplaces	-10.2129
▁Pass	-10.2132
▁journeys	-10.2133
▁Location	-10.2134
▁120	-10.2136
350	-10.2139
▁Entry	-10.214
▁signing	-10.2145
▁less	-10.2149
men	-10.2161
door	-10.2163
▁Package	-10.2168
▁belief	-10.2176
▁disclosure	-10.2179
▁regulation	-10.2182
▁material	-10.2185
▁kitchens	-10.2187
▁beliefs	-10.2193
aka	-10.2196
▁Sie	-10.2198
For	-10.2198
▁Devoteam	-10.2201
team	-10.2212
▁lines	-10.2213
▁moderniz	-10.2214
imately	-10.2225
▁komme	-10.2237
Vi	-10.2248
Space	-10.2268
▁imagine	-10.2274
▁task	-10.2275
▁median	-10.2277
▁fees	-10.2278
vador	-10.2279
▁badge	-10.2279
▁presenting	-10.2279
▁women	-10.2279
▁PowerPoint	-10.2279
▁avatar	-10.2279
▁interplanetary	-10.2279
▁circumstances	-10.2281
▁behalf	-10.2281
AI	-10.2281
▁civility	-10.2282
▁5000	-10.2283
flex	-10.2283
iii	-10.2283
▁Pursu	-10.2286
▁Hours	-10.2287
▁refine	-10.2287
▁Innovation	-10.2287
apply	-10.2291
▁selection	-10.2291
▁Hard	-10.2293
▁Entrepreneur	-10.2294
▁Bucharest	-10.2294
nce	-10.2297
▁1000	-10.2297
▁spark	-10.2299
▁light	-10.2305
▁Only	-10.231
▁bonuses	-10.2312
tolerance	-10.232
▁approx	-10.2323
▁Mid	-10.2325
▁produces	-10.2341
▁generate	-10.2343
owie	-10.2343
▁ago	-10.2348
▁strength	-10.2358
▁minor	-10.2368
▁publication	-10.237
▁AM	-10.24
officer	-10.2407
hour	-10.2412
▁There	-10.242
sight	-10.2424
▁guests	-10.244
join	-10.2442
UX	-10.245
▁contracts	-10.2455
interview	-10.2455
Proven	-10.246
▁tight	-10.2464
appropriate	-10.2464
NYSE	-10.2471
▁assumptions	-10.2473
bury	-10.2473
▁2019	-10.2474
▁SKILLS	-10.2475
▁EXPERIENCE	-10.2475
▁sustainable	-10.2476
▁scientists	-10.2477
▁fintechs	-10.2478
▁debugging	-10.2479
affiliation	-10.248
▁structural	-10.2483
▁DEI	-10.2483
▁selected	-10.2484
fuge	-10.2486
▁Email	-10.2489
▁Understand	-10.2498
▁stars	-10.2502
▁appropriately	-10.2518
career	-10.252
test	-10.2521
▁persons	-10.2526
▁Why	-10.2526
▁combine	-10.2548
▁100,000	-10.2548
▁affinit	-10.2557
▁number	-10.2563
34	-10.2564
▁resident	-10.2567
ically	-10.2568
▁citizen	-10.2573
▁projet	-10.2573
▁Socials	-10.2586
▁Ensur	-10.2611
▁thrives	-10.2611
▁vr	-10.2618
▁list	-10.2624
▁PRE	-10.2626
▁listen	-10.263
▁Leader	-10.2633
▁reddit	-10.2634
by	-10.2635
▁revolv	-10.2637
▁Basic	-10.2639
year	-10.2639
Assistance	-10.2646
ter	-10.2646
▁Africa	-10.2657
relativity	-10.2659
Participate	-10.2662
Neuralink	-10.2662
▁Power	-10.2662
▁automate	-10.2663
▁cause	-10.2664
privacy	-10.2666
2023-2024	-10.2667
▁Island	-10.2667
▁Legends	-10.2668
▁Samsung	-10.2668
▁frndring	-10.2668
Pacific	-10.2669
1157,	-10.2671
▁Australia	-10.2671
discrimination	-10.2672
▁1700	-10.2673
▁posters	-10.2674
▁Agency	-10.2674
THE	-10.2675
▁lawful	-10.2676
▁personality	-10.2679
▁Shift	-10.268
▁scripting	-10.268
▁receiving	-10.2681
▁desirable	-10.2681
Games	-10.2684
▁Media	-10.269
▁enhancements	-10.2691
▁visibility	-10.2702
▁periods	-10.2705
▁Mentor	-10.2718
games	-10.272
101	-10.273
▁pursue	-10.2739
▁h	-10.2747
,700	-10.275
▁treat	-10.275
Og	-10.2752
ic	-10.2755
▁interactive	-10.276
ying	-10.2761
▁iteration	-10.2763
▁stakeholder	-10.2763
▁evaluation	-10.2763
▁certificate	-10.2767
▁today	-10.277
iness	-10.2782
▁row	-10.2783
▁auditor	-10.2783
▁Analyze	-10.2786
▁reiterat	-10.2797
▁bli	-10.2799
▁toutes	-10.2799
▁assess	-10.281
ative	-10.2815
▁reviewed	-10.2827
usa	-10.283
▁dun	-10.2832
▁correct	-10.2847
oordash	-10.2858
Software	-10.2859
RE	-10.2862
otyping	-10.2864
ember	-10.2865
▁liquid	-10.2866
DITION	-10.2866
▁Toyota	-10.2867
▁AEDT	-10.2867
▁wonder	-10.2868
▁adherence	-10.2869
175,000	-10.287
Vacation	-10.2872
▁tailored	-10.2872
▁Internet	-10.2873
-","	-10.2877
▁constraints	-10.288
▁115	-10.2881
PPO	-10.2883
10,"	-10.2897
iscrimination	-10.2902
▁sit	-10.2902
oblox	-10.2908
▁anywhereon	-10.2909
▁2024.	-10.2911
▁tant	-10.2911
▁vote	-10.2924
▁anticipat	-10.2938
▁revolutioni	-10.2945
▁safer	-10.2952
▁memor	-10.2955
▁Testing	-10.2962
▁configuration	-10.297
▁prepar	-10.2988
FER	-10.2996
▁Asy	-10.2997
ethnicit	-10.3003
Indian	-10.3003
euralink	-10.303
▁pa	-10.3035
port	-10.3035
▁types	-10.304
▁cohesive	-10.3054
▁Accounts	-10.3057
▁again	-10.3071
rely	-10.3071
▁Retreats	-10.3071
▁acumen	-10.3074
Join	-10.3075
position	-10.3078
▁few	-10.3078
▁participation	-10.3078
Professional	-10.3079
▁frontend	-10.3087
▁gaming	-10.3087
▁Dec	-10.3089
▁besoins	-10.309
oles	-10.3101
▁usage	-10.3106
▁Exceptional	-10.3121
ationwide	-10.3121
our	-10.3122
Create	-10.3132
▁TO	-10.3137
▁stories	-10.3138
vel	-10.3138
▁consistently	-10.3142
▁Human	-10.3143
cking	-10.3146
ather	-10.316
▁System	-10.3178
▁rate	-10.3179
spective	-10.3181
▁Implement	-10.3184
▁laser	-10.3186
▁Award	-10.3204
forming	-10.3206
▁ship	-10.3233
▁final	-10.3235
▁instruction	-10.3235
gan	-10.3246
▁works	-10.3259
Data	-10.326
▁insight	-10.3264
Demonstrate	-10.3276
▁$90	-10.3279
▁fi	-10.3279
▁Off	-10.3279
▁brilliance	-10.328
▁Massachusetts	-10.328
▁Dich	-10.3281
▁Kafka	-10.3284
▁progressive	-10.3284
ew	-10.3285
▁applies	-10.3292
▁USDR	-10.3296
▁happy	-10.3297
▁Man	-10.33
alth	-10.3307
▁protocols	-10.3308
varie	-10.3311
▁Final	-10.3312
▁oriented	-10.3312
▁contacted	-10.3318
29,	-10.333
▁sensitiv	-10.3353
▁Veterinar	-10.3357
▁lie	-10.3357
Account	-10.3364
▁rle	-10.337
▁projekt	-10.3372
▁externally	-10.3377
▁measurement	-10.339
▁rest	-10.3394
▁Coordinate	-10.3396
▁mo	-10.3398
▁Solution	-10.3402
▁deals	-10.3414
21,	-10.3429
▁edge	-10.3443
alyzed	-10.3446
▁NOT	-10.345
lask	-10.3458
▁formation	-10.3466
▁Day	-10.3476
▁las	-10.3481
Time	-10.3489
▁differ	-10.3492
▁Important	-10.3492
▁Reliability	-10.3492
▁practical	-10.3493
▁three	-10.3495
▁proficient	-10.3497
▁Intelligence	-10.3497
▁Item	-10.3497
▁Oct	-10.3498
Business	-10.3498
▁enablement	-10.3509
Delivery	-10.3513
▁2-3	-10.3516
▁EMEA	-10.3522
▁Santan	-10.3523
pending	-10.3523
▁Retail	-10.3527
▁Some	-10.3541
▁Engage	-10.3549
▁owned	-10.3551
▁thinker	-10.3551
▁Travel	-10.3553
▁kno	-10.3557
6+	-10.357
▁proposition	-10.3599
▁kitchen	-10.3602
▁workload	-10.361
▁pushing	-10.3614
▁Thursdays	-10.3625
▁inspections	-10.3627
cal	-10.3629
▁Cultur	-10.363
▁down	-10.3645
▁doub	-10.3645
▁domestic	-10.3645
▁Volunteer	-10.3646
▁draw	-10.3652
▁got	-10.3655
▁Coach	-10.3666
▁Desire	-10.3668
ober	-10.3675
▁al	-10.3675
▁Experienced	-10.3676
performance	-10.3692
▁Gar	-10.3705
▁queries	-10.371
▁embody	-10.371
▁corrective	-10.3713
▁confidence	-10.3714
▁cha	-10.3715
▁Write	-10.3718
▁Masters	-10.372
▁statistical	-10.3723
▁buy	-10.3726
UI	-10.3726
▁welding	-10.3726
WHOOP	-10.3727
remote	-10.3729
Help	-10.3732
▁outils	-10.3733
ad	-10.3733
mile	-10.3736
▁elevate	-10.3738
▁SAP	-10.3741
▁Cross	-10.3745
▁fundamentals	-10.3757
nda	-10.376
▁architectural	-10.3764
▁introduc	-10.3782
Assist	-10.3784
ando	-10.3789
▁Wir	-10.3792
unemployment	-10.3798
▁optimal	-10.3809
0	-10.3816
ire	-10.3816
date	-10.3824
LY	-10.3828
service	-10.3833
part	-10.3833
▁Wednesdays	-10.3836
▁rotation	-10.3844
▁Highly	-10.3851
▁Steria	-10.3868
▁Game	-10.387
▁troubleshoot	-10.3874
▁expanding	-10.39
Ab	-10.3904
▁Locat	-10.3913
software	-10.3913
▁Subsid	-10.3922
▁broade	-10.3927
um	-10.3932
▁recognition	-10.3932
▁curation	-10.3933
▁transition	-10.3933
ent	-10.3934
not	-10.3939
▁strengthen	-10.394
Afr	-10.3941
▁Insurance	-10.3941
▁previous	-10.3941
▁sound	-10.3945
▁informed	-10.395
▁Inventory	-10.395
▁overtime	-10.3958
▁teknisk	-10.3961
▁ASE	-10.3964
▁Training	-10.397
▁opportunits	-10.3971
▁releases	-10.3972
▁Dash	-10.3974
▁outdoors	-10.3976
▁hot	-10.3991
▁als	-10.3991
▁License	-10.3993
▁AB	-10.3993
▁ti	-10.3996
cious	-10.4022
▁op	-10.4032
services	-10.4041
▁installation	-10.4052
▁animal	-10.4061
▁Year	-10.4062
eague	-10.407
...).	-10.4076
▁postings	-10.4082
▁da	-10.409
lee	-10.4099
▁fo	-10.4099
);	-10.4113
03-	-10.4146
otre	-10.4151
▁Agencies	-10.4159
▁Austria	-10.4159
▁eager	-10.4161
▁Workspace	-10.4161
▁layout	-10.4161
▁termination	-10.4163
▁recent	-10.4166
▁assortment	-10.4167
▁discussions	-10.4168
▁gameplay	-10.4169
▁liability	-10.4169
Peloton	-10.417
▁Qualifi	-10.4177
▁minutes	-10.4178
▁analysts	-10.4179
▁updated	-10.418
▁Content	-10.4187
Basic	-10.4192
ber	-10.4193
▁Commercial	-10.4195
▁alien	-10.4196
Contribute	-10.4198
▁behind	-10.42
▁gaps	-10.4205
▁ground	-10.4206
▁Utiliz	-10.4206
▁trainings	-10.4214
▁forecasts	-10.422
▁son	-10.4221
▁bar	-10.4237
▁stages	-10.4239
▁Architect	-10.4242
▁Word	-10.4245
nos	-10.4247
▁Open	-10.4265
▁Previous	-10.427
union	-10.4276
▁hub	-10.4286
▁negotiation	-10.4287
nity	-10.4288
do	-10.4292
▁principle	-10.4292
▁resource	-10.4293
ouldn	-10.4297
▁contributor	-10.4299
mongo	-10.4313
▁capital	-10.4313
44	-10.4315
▁PR	-10.4325
▁Per	-10.4344
▁cultural	-10.4357
ited	-10.4366
per	-10.4366
Market	-10.4367
▁13	-10.4367
vantages	-10.4372
▁Direct	-10.4387
▁adoptive	-10.4392
▁observability	-10.4392
▁Inspector	-10.4395
▁editorial	-10.4397
▁thoughtful	-10.4398
▁dashboards	-10.4403
Lo	-10.4404
▁numer	-10.4405
MV	-10.441
▁ROLE	-10.441
▁specifically	-10.4414
▁tu	-10.4416
Proficiency	-10.4424
▁accurately	-10.4445
▁banking	-10.4446
heav	-10.4452
Conduct	-10.4454
▁workout	-10.4465
▁benchmark	-10.4466
▁qualifi	-10.4468
utting	-10.448
▁sign	-10.4483
66	-10.449
▁Representative	-10.4515
IT	-10.4516
ATION	-10.4518
▁frn	-10.452
9	-10.4529
▁Stay	-10.4537
▁Le	-10.4544
▁ber	-10.4547
tra	-10.4562
v	-10.4592
▁coach	-10.4595
AB	-10.4598
▁me	-10.4604
▁contain	-10.462
▁geographic	-10.4621
▁connaissance	-10.463
▁entertain	-10.463
▁distinctive	-10.463
▁bodies	-10.463
▁minimal	-10.4631
▁curiosity	-10.4631
▁urgency	-10.4633
▁relocate	-10.4633
▁Revenue	-10.4634
ety	-10.4635
▁atmosphere	-10.4639
▁Policy	-10.4641
▁prototyping	-10.4641
▁Brand	-10.4644
▁accrue	-10.4645
▁Public	-10.4648
▁Tableau	-10.4649
tied	-10.4651
.00	-10.4653
▁savings	-10.4654
▁contre	-10.4656
▁labeling	-10.4659
critical	-10.466
▁Ban	-10.4662
▁ADESA	-10.4668
Additional	-10.4672
▁Prior	-10.4678
▁traveling	-10.468
▁Unc	-10.4686
viewed	-10.4704
▁whole	-10.4719
▁Producers	-10.4724
▁roadmaps	-10.4731
rate	-10.4754
▁primar	-10.4754
▁forme	-10.4761
▁mix	-10.4777
▁Hero	-10.478
teria	-10.4787
!)	-10.4794
rt	-10.4795
line	-10.4797
▁merchants	-10.4805
optical	-10.4823
▁experiment	-10.4836
▁licenses	-10.4837
▁flows	-10.4841
management	-10.4842
▁India	-10.4849
▁streamline	-10.4853
▁term	-10.4858
▁Summ	-10.486
▁same	-10.4866
ACT	-10.4868
▁2012	-10.4873
▁Allowance	-10.4874
▁attempt	-10.4874
▁Identity	-10.4874
▁seriously	-10.4875
▁familiar	-10.4876
tuition	-10.4876
▁functionality	-10.4878
▁NetSuite	-10.4878
▁Income	-10.4879
▁shipping	-10.4883
▁scripts	-10.4889
▁agreements	-10.4891
▁mitigat	-10.4895
▁load	-10.4898
▁coding	-10.49
▁Oracle	-10.4908
▁Points	-10.4909
ice	-10.4909
rom	-10.4916
oner	-10.4919
ServiceNow	-10.4921
disposition	-10.4934
▁smarte	-10.4951
▁increasing	-10.4952
Qualifi	-10.4952
▁prospecting	-10.4954
▁pages	-10.4959
▁technicians	-10.496
▁developed	-10.5
▁st	-10.5001
ordinar	-10.5002
MS	-10.5006
▁sig	-10.5006
▁2025	-10.5014
▁expansion	-10.5019
dependent	-10.5021
▁reduction	-10.5023
arent	-10.5028
NS	-10.5029
▁workflow	-10.5032
▁prioritiz	-10.5036
▁coordinat	-10.5042
▁retailer	-10.5046
▁domains	-10.5047
▁familial	-10.505
rental	-10.5067
▁don	-10.5068
▁formations	-10.5097
▁een	-10.5102
▁NY	-10.5109
▁$30	-10.5115
BENEFITS	-10.5124
credentials	-10.5124
▁sophisticated	-10.5124
▁BRING	-10.5124
▁fraud	-10.5124
▁rejoindre	-10.5124
▁Driver	-10.5124
▁IMP	-10.5124
▁done	-10.5124
ta	-10.5125
▁facility	-10.5126
▁supervision	-10.5127
▁adjustments	-10.5129
▁conception	-10.513
▁capture	-10.5132
▁Excellence	-10.5134
ization	-10.5137
▁Hardware	-10.5144
▁Rate	-10.5144
▁influencing	-10.5145
▁verticals	-10.5148
▁propos	-10.515
anks	-10.5152
▁Algeria	-10.5154
▁mtiers	-10.5155
▁Trust	-10.5158
▁Share	-10.5171
▁Bosch	-10.5176
Boston	-10.5176
Have	-10.5184
Product	-10.5204
xtensive	-10.5212
1158,	-10.5227
▁fix	-10.5234
▁fulfillment	-10.5235
▁sel	-10.5262
▁Paint	-10.5274
▁positioning	-10.5279
▁embodie	-10.528
▁approval	-10.5281
▁taken	-10.5286
▁notice	-10.5293
▁speaking	-10.5302
▁Vehicle	-10.5306
▁Prepare	-10.5308
▁hi	-10.5319
▁cree	-10.5338
▁lowe	-10.5356
▁search	-10.5357
▁Guest	-10.5362
talking	-10.5365
▁possibilit	-10.5365
▁implant	-10.5371
▁HTML	-10.538
▁libraries	-10.538
▁obligations	-10.538
▁economy	-10.538
▁intressant	-10.538
▁International	-10.538
▁inclusif	-10.5381
afry	-10.5382
▁homeowners	-10.5382
▁oversight	-10.5383
▁Counsel	-10.5385
▁Review	-10.5387
▁aim	-10.5388
▁Potential	-10.539
▁performant	-10.5393
▁integrating	-10.5395
▁discovery	-10.5395
Like	-10.5398
▁bien	-10.5402
▁violat	-10.5402
▁Engagement	-10.5403
hoc	-10.5404
▁retaining	-10.5404
▁lsningar	-10.5406
▁fluid	-10.5419
▁Analytical	-10.5427
▁capab	-10.5428
Technical	-10.5438
Automotive	-10.5441
▁Ado	-10.5444
Sr	-10.5444
▁SLAs	-10.5445
op	-10.5453
down	-10.5455
▁$	-10.546
tim	-10.5461
▁larger	-10.5463
▁Art	-10.5465
Working	-10.547
▁deploying	-10.547
ments	-10.547
▁AT	-10.5483
Part	-10.5491
stere	-10.5492
▁ne	-10.5498
▁circulat	-10.55
▁100,	-10.551
▁involve	-10.5526
▁robot	-10.5542
ability	-10.5548
▁uppdrag	-10.555
▁studio	-10.5551
▁Personal	-10.5574
▁Ads	-10.5577
▁sa	-10.5579
▁alia	-10.5581
▁steps	-10.5597
▁locat	-10.5607
nous	-10.5607
▁capacit	-10.5634
ement	-10.5639
rio	-10.564
▁transport	-10.5643
▁elegant	-10.5643
▁veterinary	-10.5643
▁spouse	-10.5643
▁kollegor	-10.5644
▁earlie	-10.5644
▁storage	-10.5644
▁veille	-10.5647
▁valuable	-10.5649
▁publishing	-10.565
▁capability	-10.565
▁governance	-10.5651
ke	-10.5653
▁CSE	-10.5654
▁integral	-10.5656
Monitor	-10.5658
▁Six	-10.566
▁radi	-10.5664
▁cleanliness	-10.567
▁ma	-10.5671
▁yet	-10.5674
▁Web	-10.5679
▁Expert	-10.568
▁Proactive	-10.5682
ndo	-10.5685
00	-10.5689
▁Windows	-10.5693
▁mask	-10.5703
Austin	-10.5708
▁Fully	-10.571
▁Wil	-10.5712
▁profils	-10.5712
▁Start	-10.5715
▁closure	-10.5719
▁pushe	-10.5725
▁OR	-10.5731
▁het	-10.5754
▁ge	-10.5758
▁size	-10.5775
ver	-10.578
▁catere	-10.5783
cally	-10.5785
me	-10.5791
known	-10.5795
▁enthusiastic	-10.5797
gen	-10.58
▁Scientist	-10.5808
▁agenda	-10.5811
▁chance	-10.5813
▁signal	-10.5829
▁9	-10.5843
▁estimate	-10.5869
▁joint	-10.5889
world	-10.589
▁emphasi	-10.5891
▁pick	-10.5895
▁Programme	-10.5909
Required	-10.5912
▁personnel	-10.5914
▁kreativ	-10.5915
▁enrolled	-10.5916
▁socit	-10.5916
▁niveau	-10.5917
▁Vets	-10.5918
▁Rift	-10.5918
sopra	-10.592
▁Improvement	-10.5921
Identify	-10.5923
▁attach	-10.5923
▁founde	-10.5923
▁datasets	-10.593
▁signif	-10.5931
▁jeu	-10.5931
▁imaging	-10.5932
▁Engine	-10.5933
tial	-10.5944
▁latency	-10.5952
▁French	-10.5952
▁Terraform	-10.5952
▁proof	-10.5971
Contract	-10.5973
▁contributions	-10.5976
Familiarity	-10.5982
Monro	-10.5989
ML	-10.6021
▁til	-10.6023
fluent	-10.6032
▁Sr	-10.6041
Vo	-10.6044
▁Processing	-10.6044
▁propose	-10.6054
▁had	-10.6055
na	-10.6072
▁moving	-10.6074
▁intuitive	-10.6075
quipe	-10.6075
▁statements	-10.6078
▁escalation	-10.6088
▁collection	-10.6089
▁equipo	-10.6095
▁Producer	-10.6097
▁advancement	-10.6103
▁Supervisor	-10.6106
▁reaching	-10.6118
da	-10.6124
▁artist	-10.614
▁toward	-10.6145
▁Mo	-10.6149
▁divers	-10.6159
Manager	-10.6168
▁respectful	-10.6177
ie	-10.6189
afeguard	-10.619
▁welfare	-10.6191
▁children	-10.6191
hailing	-10.6191
▁importance	-10.6192
▁stoop	-10.6192
▁Gaming	-10.6192
lease	-10.6192
▁60	-10.6194
▁Spark	-10.6197
TM	-10.6197
▁accountable	-10.6203
▁second	-10.6205
▁Tire	-10.6205
▁enhanc	-10.6216
▁pulling	-10.6222
ieurs	-10.6223
▁prioritise	-10.6226
▁workshops	-10.6228
▁jobba	-10.623
▁earnings	-10.6233
ink	-10.6247
▁auto	-10.6248
▁checks	-10.6262
rd	-10.6267
▁mise	-10.6286
Key	-10.6291
behold	-10.6311
▁45	-10.6312
processe	-10.6313
▁celebrati	-10.6314
▁instructions	-10.6331
▁Ad	-10.6335
sta	-10.6352
▁semaine	-10.6369
▁patient	-10.6373
gr	-10.6375
ade	-10.6415
marketing	-10.6416
▁Match	-10.6419
Able	-10.6422
ify	-10.6438
▁internship	-10.6445
▁Famili	-10.6455
NA	-10.6458
▁framtiden	-10.6465
ze	-10.647
▁finding	-10.6476
▁Brazil	-10.6477
▁energetic	-10.6477
hesitat	-10.6477
▁distill	-10.6477
▁storytelling	-10.6478
ycle	-10.6479
▁fabrication	-10.6479
▁propulsion	-10.648
▁factory	-10.648
▁memora	-10.6482
▁GenAI	-10.6482
▁reputation	-10.6486
▁motivate	-10.6488
ilicon	-10.6488
lo	-10.6497
▁designated	-10.6499
▁Mom	-10.6501
▁Effective	-10.6501
▁Education	-10.6504
▁Electrical	-10.6506
▁lifting	-10.651
▁CX	-10.6515
▁Possess	-10.6529
▁Foster	-10.6538
ins	-10.6544
pal	-10.6545
▁phases	-10.6552
▁safely	-10.6558
Customer	-10.6566
volume	-10.6567
Whoop	-10.6567
▁leg	-10.6573
▁attract	-10.6584
▁infus	-10.66
▁vic	-10.6603
case	-10.6639
▁Being	-10.6643
▁computers	-10.6654
alton	-10.6661
▁hazard	-10.6671
▁Pet	-10.6684
▁Additional	-10.6697
▁Bereich	-10.6702
iological	-10.6712
acy	-10.6718
▁paced	-10.6741
▁Record	-10.6742
▁tactical	-10.6759
Bachelor	-10.677
▁respectueux	-10.6771
▁24/7	-10.6771
led	-10.6772
▁grasp	-10.6772
▁scurit	-10.6774
irbrush	-10.6775
▁construction	-10.6775
▁Req	-10.6775
▁brainstorming	-10.6776
▁remain	-10.6778
▁progression	-10.6778
▁PaaS	-10.6782
▁tous	-10.6784
where	-10.6791
▁assurance	-10.6792
▁nature	-10.6797
▁Spring	-10.6807
42	-10.6808
▁por	-10.681
▁GTM	-10.6813
▁cyber	-10.6817
building	-10.6822
▁dr	-10.6825
▁robotics	-10.6828
▁Jenkins	-10.6831
▁Villa	-10.6839
Embedded	-10.6839
▁10+	-10.6841
▁gute	-10.6845
DR	-10.6862
stack	-10.6862
verify	-10.6875
▁spaces	-10.689
Sa	-10.6891
En	-10.6905
▁bank	-10.6909
▁surg	-10.6913
etworks	-10.6935
▁processus	-10.6939
stage	-10.6945
▁FP	-10.6949
▁advisor	-10.6961
production	-10.6967
▁style	-10.6981
▁threat	-10.6989
dible	-10.6992
▁generat	-10.6997
ett	-10.7023
▁men	-10.7025
month	-10.7072
▁Robot	-10.7074
▁Maghreb	-10.7074
▁Morocco	-10.7074
▁jusqu	-10.7074
▁sleeves	-10.7074
▁mutuelle	-10.7074
▁paramount	-10.7074
▁Bike	-10.7075
▁Tunisia	-10.7076
▁ideation	-10.7077
▁Confident	-10.708
▁qualitative	-10.7081
innen	-10.7081
▁TA	-10.7081
▁hid	-10.7084
▁thousands	-10.7084
▁payroll	-10.7085
▁Risk	-10.7086
▁bonne	-10.7087
▁titre	-10.7091
ppreciation	-10.7091
▁incredibl	-10.7092
oth	-10.71
▁elements	-10.7107
▁salarie	-10.7107
coming	-10.7109
▁testable	-10.711
▁Set	-10.7111
times	-10.7119
▁Recruiting	-10.7121
tical	-10.7121
▁primes	-10.7123
▁engag	-10.7127
▁Mexico	-10.7129
▁physics	-10.7135
▁dina	-10.7138
▁suitab	-10.7156
▁win	-10.7157
written	-10.7166
Drive	-10.7167
ung	-10.7175
Awin	-10.718
Mechanic	-10.7182
▁cent	-10.7182
▁Creat	-10.7187
▁pav	-10.7198
Learning	-10.72
▁alternative	-10.7202
ether	-10.7205
▁tr	-10.7217
engagements	-10.7224
ten	-10.7226
▁option	-10.7233
▁travailler	-10.7241
▁200	-10.7248
Y	-10.7248
connai	-10.7248
▁Leaders	-10.7264
Candidate	-10.7276
Bachelors	-10.7284
▁allocation	-10.7284
▁Consumer	-10.7289
▁transaction	-10.729
▁Studio	-10.7323
▁multitask	-10.7329
▁paper	-10.7334
▁title	-10.7336
...)	-10.7339
tation	-10.7342
▁board	-10.7352
its	-10.7352
▁technician	-10.7375
quo	-10.7376
▁dynamics	-10.738
▁$1	-10.7384
▁Place	-10.7385
▁deine	-10.7385
ONSITE	-10.7387
▁resilient	-10.7387
▁freedom	-10.7387
▁continent	-10.7387
▁Motor	-10.7388
▁Requires	-10.7391
no	-10.7391
▁Guide	-10.7392
▁VALORANT	-10.7392
▁identification	-10.7397
AM	-10.74
▁Node	-10.7401
▁afford	-10.7404
▁convenient	-10.7404
▁lab	-10.7405
▁Passionate	-10.7405
▁workspace	-10.7406
▁Jira	-10.7418
▁Git	-10.7419
▁prep	-10.7423
▁strategically	-10.7424
▁assemblies	-10.7428
▁rollen	-10.7428
▁Fe	-10.7428
▁favorise	-10.7429
▁advis	-10.7432
10	-10.7449
platform	-10.7449
▁COMPE	-10.7454
▁incorporate	-10.7455
▁oral	-10.7466
▁assessments	-10.7466
▁leaves	-10.7471
▁onsite	-10.7479
▁Officer	-10.7482
▁visualization	-10.7486
▁participat	-10.7486
English	-10.7495
▁observe	-10.7497
redi	-10.75
Shift	-10.7506
NBCUniversal	-10.7506
▁IP	-10.7508
IVC	-10.7508
▁server	-10.7514
▁RF	-10.7518
Where	-10.7522
▁transformati	-10.7529
36	-10.7541
▁Get	-10.7551
▁ses	-10.7577
▁ads	-10.7578
▁nuestr	-10.7582
▁cleaning	-10.7584
▁mitigation	-10.7596
▁associates	-10.76
▁partenaire	-10.7603
▁measures	-10.7608
▁competitor	-10.761
▁name	-10.7623
▁Sub	-10.7632
▁Document	-10.7638
▁Lean	-10.7638
bb	-10.7644
▁VC	-10.7644
Analyze	-10.7656
▁Food	-10.7657
ped	-10.7658
ould	-10.7672
▁Teams	-10.7675
binar	-10.7675
▁agent	-10.7676
▁rigorous	-10.7693
▁environmental	-10.7698
▁white	-10.7708
▁inkludera	-10.7709
▁BrainStation	-10.7709
▁clarity	-10.7709
▁forefront	-10.7709
▁judgment	-10.7709
▁orchestration	-10.771
▁profitability	-10.771
▁recovery	-10.771
▁oportunidades	-10.7712
18	-10.7715
▁TX	-10.7716
awin	-10.7716
▁classification	-10.7716
Functional	-10.7722
▁mapping	-10.7722
▁billing	-10.7725
▁domaine	-10.7728
▁deliveries	-10.7737
▁EHS	-10.7741
▁discover	-10.7742
▁shows	-10.7743
▁scenes	-10.7744
▁claims	-10.7747
▁advertisers	-10.7749
▁inspiring	-10.7752
Partner	-10.7757
▁Opportunities	-10.7761
▁proposals	-10.7772
▁responses	-10.7784
viewing	-10.7785
▁Fluency	-10.7789
▁Is	-10.7789
▁electronics	-10.7794
▁assessing	-10.7805
Director	-10.7826
▁Background	-10.7828
Wellness	-10.784
Toronto	-10.784
em	-10.7842
Employe	-10.7845
aught	-10.7854
▁retailers	-10.7855
▁Artist	-10.7867
erritory	-10.7883
SDA	-10.789
▁Faste	-10.7906
▁effort	-10.793
30	-10.7947
▁demands	-10.7948
tested	-10.7955
▁produce	-10.7958
W	-10.7961
▁Champion	-10.7961
▁haves	-10.7967
▁Executives	-10.7968
ompliance	-10.7976
some	-10.7978
▁climb	-10.7983
▁Vend	-10.7983
▁Wh	-10.7984
▁reading	-10.7988
Affirm	-10.7991
llows	-10.7993
engager	-10.8
▁Interest	-10.8012
▁inside	-10.8013
lity	-10.8026
▁suit	-10.8041
pa	-10.8042
▁treasury	-10.8043
▁aptitude	-10.8043
▁Aviv	-10.8043
▁segmentation	-10.8043
▁responsable	-10.8043
▁vacances	-10.8044
▁fuel	-10.8045
▁detection	-10.8046
▁Report	-10.8046
▁foreign	-10.8048
▁spoken	-10.8049
▁autonomie	-10.8053
rospective	-10.8053
▁TypeScript	-10.8055
▁Duties	-10.8064
▁pessoas	-10.8065
▁milestones	-10.8065
▁carrire	-10.8068
▁Short	-10.8069
Find	-10.8073
ties	-10.8081
▁organize	-10.8095
▁counseling	-10.8102
▁University	-10.8104
▁ensemble	-10.8108
56	-10.8112
▁mod	-10.812
lutter	-10.8158
174	-10.816
▁engaged	-10.8177
▁trans	-10.8178
Purpose	-10.8181
Bangalore	-10.8183
CyberArk	-10.8184
tler	-10.8203
▁targeting	-10.8204
Understanding	-10.8227
▁select	-10.823
▁Specific	-10.8244
-4	-10.8253
Tel	-10.8256
▁Awards	-10.8273
▁premiums	-10.8273
ro	-10.8274
▁sp	-10.828
▁update	-10.8281
▁Center	-10.8284
nn	-10.8302
▁East	-10.8323
intresse	-10.8325
▁Fluen	-10.8354
▁convey	-10.8362
▁accredit	-10.8386
▁confrences	-10.8387
▁curriculum	-10.8387
▁buffing	-10.8387
▁omstllning	-10.8387
▁Talk	-10.8387
▁maternity	-10.8388
▁Disability	-10.8388
▁Enablement	-10.8389
▁repayment	-10.8389
▁inquiries	-10.839
▁evaluating	-10.8391
▁CSS	-10.8391
▁nach	-10.8391
▁Leads	-10.8393
▁borrow	-10.8393
▁samarbetar	-10.8396
▁themselves	-10.8397
▁evolution	-10.8397
▁Gen	-10.8398
▁adaptable	-10.8398
▁dvelopper	-10.8399
▁methodology	-10.8401
▁dveloppeurs	-10.8401
▁inspected	-10.8403
▁extend	-10.8404
▁","	-10.8404
▁zum	-10.8405
▁Teil	-10.8406
▁issue	-10.8407
▁Over	-10.8408
Pai	-10.8409
▁exchange	-10.8413
▁Logistics	-10.8413
▁bist	-10.8416
▁Amazon	-10.8422
▁drawings	-10.8424
▁master	-10.8425
▁Stack	-10.8429
▁appreciated	-10.844
▁Improve	-10.845
off	-10.8458
Reward	-10.846
2+	-10.8464
his	-10.8469
▁prepare	-10.8472
ations	-10.8474
▁reduc	-10.8481
▁Places	-10.8499
Une	-10.8501
▁vrld	-10.8507
▁Hybrid	-10.8522
▁path	-10.8522
$200	-10.8525
▁contacts	-10.8525
vos	-10.8539
Expertise	-10.8541
Great	-10.8541
Evidensia	-10.8542
Tech	-10.8544
▁runt	-10.8552
Prepare	-10.8552
▁unser	-10.8567
▁BASI	-10.8585
▁involves	-10.8596
▁maintained	-10.8601
▁Found	-10.8626
▁hos	-10.8632
▁output	-10.8635
sky	-10.8636
▁definition	-10.8638
Incre	-10.8638
▁standing	-10.865
▁surface	-10.865
▁Member	-10.8665
▁counsel	-10.8696
▁Fast	-10.8704
▁frequent	-10.8731
inary	-10.8732
ncia	-10.8735
▁German	-10.8738
vidensia	-10.874
lead	-10.8741
▁Prep	-10.8742
▁GAAP	-10.8745
▁medarbetare	-10.8745
▁pawd	-10.8745
▁scrappy	-10.8745
▁consist	-10.8745
$147,00	-10.8745
▁easy	-10.8745
▁kneel	-10.8745
▁emergency	-10.8745
▁something	-10.8745
▁Boot	-10.8748
▁shield	-10.875
▁Hourly	-10.8751
NET	-10.8751
▁liaison	-10.8751
▁example	-10.8751
▁Change	-10.8752
▁usher	-10.8755
▁inference	-10.8756
▁Sigma	-10.8758
▁Vill	-10.876
▁Dent	-10.8764
Lube	-10.8765
▁Qualification	-10.8766
▁effects	-10.8771
▁Developing	-10.8772
▁Search	-10.8773
ropulsion	-10.8774
▁digitally	-10.8777
▁Painter	-10.8778
▁wage	-10.8779
▁Maintenance	-10.878
offs	-10.8785
▁mixi	-10.8787
▁automat	-10.879
▁excess	-10.8791
01	-10.8792
slip	-10.8795
▁afin	-10.8797
▁noise	-10.8797
▁Regulatory	-10.8802
▁NDE	-10.8802
▁Server	-10.8804
▁feet	-10.8808
▁precision	-10.881
uch	-10.8811
▁timing	-10.8811
▁extreme	-10.8816
▁Florida	-10.8824
▁translat	-10.883
▁Pro	-10.8836
▁defects	-10.884
▁listening	-10.8846
▁Let	-10.886
▁j	-10.8861
▁facilitat	-10.8863
▁er	-10.8864
▁si	-10.8872
▁allt	-10.8872
iver	-10.8874
lar	-10.8881
both	-10.8884
2025","	-10.8889
▁importantly	-10.8896
▁expansions	-10.8897
▁rates	-10.89
graph	-10.8909
▁animals	-10.891
mechanical	-10.8911
Enhance	-10.8913
mes	-10.8914
1-2	-10.892
▁u	-10.8924
Stay	-10.8927
▁develops	-10.8938
▁executed	-10.8956
Highly	-10.8957
12	-10.8959
heat	-10.8961
▁combin	-10.8967
peer	-10.8972
▁trend	-10.8974
000	-10.8991
759	-10.8996
qualifying	-10.9006
▁rang	-10.9008
ities	-10.9009
art	-10.9011
▁localiz	-10.9026
▁zone	-10.9026
▁totale	-10.9026
▁reconciliation	-10.9031
light	-10.9042
▁image	-10.9052
▁kvalificer	-10.9076
▁ei	-10.9093
array	-10.9108
▁educate	-10.9113
nbcuni	-10.9115
▁merchandising	-10.9115
▁maximum	-10.9115
▁encompass	-10.9115
▁perception	-10.9115
▁private	-10.9115
▁overhead	-10.9115
▁emotional	-10.9116
▁responsive	-10.9116
▁Citi	-10.9116
▁enforcement	-10.9116
▁resonate	-10.9116
▁micro	-10.9117
▁encore	-10.9117
▁$122,	-10.9118
▁favor	-10.9118
▁vital	-10.9119
▁Ferti	-10.9119
▁indicators	-10.912
▁entities	-10.9121
▁Affairs	-10.9121
▁staffing	-10.9122
▁seize	-10.9122
▁IAM	-10.9124
▁donnes	-10.9124
▁Don	-10.913
▁picture	-10.9136
▁Animal	-10.9137
▁stability	-10.9138
business	-10.9139
▁Generate	-10.9144
acin	-10.9144
▁volunteering	-10.9145
▁opinions	-10.9145
▁Sheets	-10.9147
▁Campaign	-10.9147
▁sho	-10.9149
ealth	-10.915
▁PhD	-10.9152
▁microservices	-10.9156
▁Accountant	-10.9158
▁grants	-10.9158
▁vara	-10.9162
▁kontor	-10.9163
▁confidently	-10.9166
Are	-10.9169
dept	-10.9185
▁Tools	-10.9187
▁Operational	-10.9188
▁kind	-10.9194
▁specialists	-10.9203
▁Evaluate	-10.9205
task	-10.9207
▁MBA	-10.9209
agazine	-10.9213
▁teach	-10.9221
▁sort	-10.9225
▁sports	-10.9225
ff	-10.923
ou	-10.9235
▁worked	-10.9236
▁Vo	-10.9241
5.00.	-10.9246
▁supervis	-10.9246
▁pitch	-10.9247
▁tho	-10.9253
▁ce	-10.9253
click	-10.9258
▁locate	-10.9264
elles	-10.9266
▁40	-10.9271
Carvana	-10.9276
▁Who	-10.928
1_2	-10.9281
▁Frequent	-10.9295
Communicate	-10.9296
Think	-10.93
▁uniform	-10.9301
cold	-10.9301
ingly	-10.9302
Dental	-10.9312
▁olik	-10.9314
▁budgeting	-10.9318
aines	-10.932
▁$166,	-10.932
▁Core	-10.9324
▁erfolgreich	-10.9327
la	-10.9331
▁scheduled	-10.9335
▁version	-10.9339
way	-10.9343
▁touch	-10.9351
376	-10.9358
▁defined	-10.9366
▁di	-10.937
Car	-10.9372
ney	-10.9384
▁voucher	-10.9393
▁appli	-10.9408
▁era	-10.9422
▁behaviors	-10.9452
▁gar	-10.9453
Fluen	-10.9457
opportunit	-10.9465
era	-10.9468
▁ver	-10.9471
▁traffic	-10.9474
▁tout	-10.9477
▁rgion	-10.9484
prs	-10.9498
▁appearance	-10.95
sluta	-10.95
▁Bewerber	-10.95
▁advice	-10.95
▁Vue	-10.95
▁collectif	-10.95
▁truck	-10.9501
▁bottlenecks	-10.9502
▁study	-10.9503
▁routing	-10.9505
dad	-10.9505
▁Distribution	-10.9506
▁negotiating	-10.951
▁autonomously	-10.9511
▁drafting	-10.9513
▁suivi	-10.9515
▁Mar	-10.9516
▁Mobile	-10.9518
▁Tax	-10.9521
▁savvy	-10.9522
▁Kotlin	-10.9522
▁arms	-10.953
▁bridge	-10.9532
▁Summer	-10.9535
▁smoothly	-10.9535
▁gathering	-10.9536
automatisation	-10.9537
▁arbete	-10.9538
▁Unreal	-10.9538
▁Execution	-10.9538
▁Equality	-10.9539
▁university	-10.9546
02	-10.9548
▁fan	-10.9552
▁assignments	-10.9552
▁streaming	-10.9561
stand	-10.9563
▁instrument	-10.9564
▁answers	-10.9566
2000,	-10.9569
▁Backend	-10.957
▁Manag	-10.9571
IP	-10.9572
avid	-10.9576
Project	-10.9578
▁programme	-10.9578
▁Merchants	-10.9585
IN	-10.9592
▁funds	-10.9596
▁po	-10.9599
einem	-10.9616
▁Ops	-10.9624
▁Stream	-10.9627
▁ex	-10.9638
▁collect	-10.9642
▁cole	-10.9644
X	-10.9648
mprehensive	-10.9653
vis	-10.9655
ia	-10.9657
terior	-10.9663
amos	-10.9663
SQL	-10.9664
▁Customers	-10.9666
Benefits	-10.9669
.*	-10.9676
▁Monitoring	-10.9677
nar	-10.968
mente	-10.9684
▁mer	-10.9684
▁$166,000	-10.9689
▁fluent	-10.9691
Job	-10.9693
Preferred	-10.9693
Other	-10.9695
Administrator	-10.9696
von	-10.9698
consultant	-10.9699
▁greate	-10.9701
formations	-10.9708
▁launches	-10.9719
Implement	-10.972
▁loading	-10.9723
▁escalate	-10.9728
▁forecast	-10.9733
▁managed	-10.9737
▁profil	-10.9765
▁interesting	-10.9772
▁phase	-10.9773
▁dem	-10.9774
▁implementations	-10.9778
▁quota	-10.9785
▁text	-10.9788
▁adhere	-10.9789
.-	-10.979
Me	-10.9794
▁advise	-10.9794
▁satellite	-10.9794
▁accessible	-10.9796
▁Skill	-10.98
▁firm	-10.9802
ate	-10.9823
Paint	-10.9828
▁Out	-10.9828
▁http	-10.9832
▁Practice	-10.9834
▁crouch	-10.9836
Alg	-10.9836
housands	-10.9845
▁carry	-10.9851
▁bra	-10.9873
▁immediate	-10.9885
▁investments	-10.9888
▁technische	-10.9889
▁placement	-10.9891
▁absorb	-10.99
▁discrepancies	-10.99
▁furniture	-10.99
▁tactics	-10.99
▁distance	-10.99
▁Photo	-10.99
▁kannst	-10.99
▁yield	-10.99
▁Assurance	-10.99
▁blockers	-10.99
▁massive	-10.99
▁unassisted	-10.9901
▁Economics	-10.9902
▁audio	-10.9903
▁Prepper	-10.9903
▁Statistics	-10.9903
▁sanding	-10.9904
▁garantir	-10.9904
▁sera	-10.9905
▁Gym	-10.9906
▁Bli	-10.9906
▁Architecture	-10.9907
▁entertainment	-10.991
▁Looker	-10.991
▁scratch	-10.9914
get	-10.9917
▁Started	-10.9917
▁however	-10.9918
▁diagnostics	-10.9919
16	-10.9921
▁auction	-10.9921
▁ahead	-10.9922
▁500.	-10.9923
til	-10.9923
▁inbound	-10.9924
▁Glass	-10.9925
41	-10.9927
▁esprit	-10.9931
▁Netanya	-10.9931
▁Avionics	-10.9931
▁omfa	-10.9932
have	-10.9934
▁JIRA	-10.9939
▁publishers	-10.9941
▁imaginer	-10.9945
▁motivation	-10.995
▁bias	-10.9957
▁Middle	-10.9963
▁varied	-10.9964
▁Seattle	-10.9964
▁Premise	-10.9964
▁expose	-10.9969
▁precise	-10.9975
9.00	-10.9978
▁ISO	-10.9978
ASIC	-10.998
▁mais	-10.998
▁Matching	-10.9982
▁narratives	-10.9984
iers	-10.9985
▁coop	-10.9992
▁!	-10.9998
▁accessibles	-11.0005
▁remotely	-11.0006
▁fight	-11.001
ek	-11.0017
▁accelerat	-11.0027
▁desired	-11.0028
cycle	-11.0032
gender	-11.0034
▁city	-11.0037
▁onboard	-11.0051
va	-11.0057
sls	-11.0059
inclusive	-11.008
▁pair	-11.0084
York	-11.0095
Principal	-11.0098
universal	-11.0104
Fremont	-11.0105
▁causes	-11.0107
igen	-11.0111
Hands	-11.0112
Previous	-11.0113
Coordinate	-11.0116
▁stor	-11.0124
▁Bra	-11.0124
vesting	-11.0127
JS	-11.0128
▁side	-11.013
▁Deine	-11.0133
▁3-5	-11.0141
uma	-11.0143
▁fund	-11.0144
experience	-11.0144
intern	-11.0161
▁La	-11.0165
▁embrac	-11.0167
ex	-11.0176
▁map	-11.0179
▁irre	-11.0181
▁pack	-11.0185
▁god	-11.0193
.).	-11.0196
▁bus	-11.0199
85	-11.0211
▁question	-11.0212
▁assessment	-11.0216
Pa	-11.022
▁Automate	-11.0225
▁heat	-11.0229
ooking	-11.0233
tors	-11.0235
ptional	-11.0245
04	-11.0251
▁remov	-11.0274
centered	-11.0277
▁matching	-11.0282
Junior	-11.0295
▁monde	-11.0298
▁erbjud	-11.0302
ga	-11.0314
▁pur	-11.0314
▁constellation	-11.0316
▁Golang	-11.0316
▁Accessibility	-11.0317
▁surgery	-11.0319
▁might	-11.032
▁compliant	-11.0322
▁ROI	-11.0323
▁reader	-11.0323
▁funnel	-11.0323
▁Ansible	-11.0324
▁satisfy	-11.0325
▁esports	-11.0328
▁diagnosis	-11.033
▁immediately	-11.0331
▁Clients	-11.0336
▁possib	-11.0336
▁Treasury	-11.034
▁Warehouse	-11.034
▁convention	-11.0341
▁Regional	-11.0342
cashback	-11.0343
▁wi	-11.0348
▁popular	-11.0349
▁convenience	-11.035
95	-11.035
06	-11.0353
▁stratgie	-11.0357
▁wire	-11.0361
▁influen	-11.0363
▁conferences	-11.0366
▁bugs	-11.0367
▁sk	-11.037
▁activations	-11.0371
▁zur	-11.0372
▁college	-11.0377
▁Industrial	-11.038
ship	-11.0382
▁Berlin	-11.0383
▁prototypes	-11.0387
▁utilisateurs	-11.0402
specialist	-11.0403
account	-11.0403
▁streams	-11.0412
▁col	-11.0414
erez	-11.0439
▁commerce	-11.0444
▁mani	-11.0448
▁Ma	-11.0449
▁pace	-11.0451
animation	-11.0457
source	-11.0461
ingness	-11.0471
▁representatives	-11.0474
▁Pension	-11.0479
▁accompagner	-11.048
▁cultureA	-11.0482
▁vrde	-11.0494
leader	-11.0497
six	-11.0501
▁tre	-11.0502
▁inspect	-11.0505
Interest	-11.0506
35	-11.0507
19	-11.0514
▁negotiations	-11.0522
▁critically	-11.0526
▁deepen	-11.053
22	-11.0531
Nation	-11.0534
Riot	-11.0535
▁propositions	-11.0537
Security	-11.0538
▁Physic	-11.0539
Vision	-11.0541
Growth	-11.0542
ls	-11.0542
je	-11.0545
cadre	-11.0545
▁fe	-11.0552
ready	-11.0552
▁exp	-11.0556
▁ethnic	-11.0576
ef	-11.0584
▁prospecti	-11.0585
▁ticket	-11.0586
▁hoc	-11.0588
▁acting	-11.059
▁hast	-11.0597
ser	-11.0602
49	-11.0604
▁Enable	-11.0615
63	-11.0621
ility	-11.0631
High	-11.0634
▁ETL	-11.0636
▁forma	-11.0637
▁gateway	-11.064
▁routine	-11.064
▁failure	-11.0645
▁renewal	-11.0647
▁pioneer	-11.0652
▁motor	-11.0656
▁Supplier	-11.066
▁br	-11.066
▁setup	-11.0662
▁stores	-11.0669
ine	-11.067
▁ac	-11.0673
Solid	-11.068
voices	-11.0692
▁subt	-11.0692
▁Structure	-11.0706
▁hel	-11.072
48	-11.073
▁concise	-11.0736
▁persuasive	-11.075
▁melhor	-11.0751
▁Spanish	-11.0751
▁roadblocks	-11.0751
▁spectrum	-11.0751
▁grocery	-11.0751
▁damage	-11.0751
▁vibrant	-11.0751
▁Animation	-11.0751
▁criteria	-11.0752
▁Cap	-11.0752
▁tenacious	-11.0752
▁samtidigt	-11.0752
▁instrumentation	-11.0753
duce	-11.0753
▁sustainability	-11.0753
▁DNA	-11.0754
oggles	-11.0755
▁promptly	-11.0757
▁Figma	-11.0758
▁Apache	-11.0758
if	-11.0758
▁dynamique	-11.0758
▁campus	-11.0758
▁como	-11.0759
▁never	-11.0759
▁crime	-11.0761
▁command	-11.0763
▁rules	-11.0763
▁samarbete	-11.0767
▁PostgreSQL	-11.0767
▁Clinical	-11.0768
▁ambiente	-11.0769
▁water	-11.0769
▁Tasks	-11.077
▁Technologies	-11.0781
▁loops	-11.0783
▁qu	-11.0784
▁Keep	-11.0785
▁interior	-11.0788
▁Si	-11.0789
luent	-11.0793
▁rollouts	-11.0797
▁injur	-11.0797
▁FL	-11.0798
▁riders	-11.0802
▁Kenntnisse	-11.0803
▁strict	-11.0809
such	-11.081
▁colo	-11.081
▁too	-11.0826
development	-11.0833
▁influencers	-11.0843
▁Follow	-11.0853
▁promotions	-11.0854
game	-11.0855
Associate	-11.0862
▁satellites	-11.0867
unload	-11.0872
fra	-11.0886
ben	-11.0894
▁depu	-11.0907
▁house	-11.0912
▁sha	-11.0914
▁equipos	-11.0915
▁deepe	-11.0937
▁carrying	-11.0939
▁dive	-11.0947
Understand	-11.0948
▁Driv	-11.0949
▁approvals	-11.095
01","	-11.0951
▁kompetens	-11.0965
▁optimized	-11.0972
▁specialist	-11.0975
▁showcas	-11.0978
▁BS	-11.0978
▁poli	-11.0982
▁reflect	-11.0989
ort	-11.0993
▁commissions	-11.0993
Medical	-11.0995
45	-11.0997
insi	-11.1
capp	-11.1007
Test	-11.1008
▁quivalente	-11.101
band	-11.1012
inom	-11.1012
▁foods	-11.1017
58	-11.1037
▁analyse	-11.1052
▁her	-11.1054
▁contribu	-11.1061
▁By	-11.1065
▁stands	-11.107
utbound	-11.1077
▁accompagne	-11.1082
▁Q	-11.1086
▁submitt	-11.1092
▁branding	-11.1094
▁interviews	-11.1095
▁return	-11.1098
▁Expectation	-11.1099
▁finish	-11.1105
▁contribution	-11.1113
▁Channel	-11.1115
▁es	-11.1126
alternance	-11.1145
ec	-11.1149
▁whil	-11.1151
▁Player	-11.1158
ves	-11.1165
ING	-11.1178
73	-11.1188
▁comme	-11.1192
networks	-11.1193
▁demanding	-11.1194
▁alla	-11.1195
59	-11.1196
▁ENGINEER	-11.1205
Cooltura	-11.1206
▁imperative	-11.1206
▁matrise	-11.1206
▁nachhaltige	-11.1206
▁South	-11.1206
▁Validation	-11.1206
▁anskningsdag	-11.1206
▁China	-11.1206
▁GED	-11.1206
▁unified	-11.1207
▁hardworking	-11.1207
▁welcoming	-11.1209
▁personalization	-11.121
▁valeur	-11.1212
▁Source	-11.1213
▁Retention	-11.1213
▁Runner	-11.1213
▁differentiators	-11.1213
▁lquipe	-11.1214
▁SRE	-11.1215
▁dependencies	-11.1216
▁showers	-11.1217
▁negotiate	-11.1217
▁valued	-11.1218
▁templates	-11.1218
▁calling	-11.122
▁Category	-11.1222
▁Membership	-11.1222
▁parking	-11.1222
▁Rica	-11.1225
▁centers	-11.1228
▁loss	-11.1229
▁sexuelle	-11.1229
▁intgre	-11.123
▁Federal	-11.1232
▁Successful	-11.1234
bagging	-11.1234
▁incremental	-11.1237
ider	-11.1241
▁famille	-11.1245
ize	-11.1248
▁consultants	-11.1249
▁tuning	-11.1252
starters	-11.1253
▁nationality	-11.1256
64	-11.1259
▁asking	-11.1273
▁sensors	-11.1278
▁briefs	-11.1278
▁Cultivate	-11.1285
▁profit	-11.1287
▁architects	-11.1287
8,31	-11.1288
▁collecting	-11.1288
▁Apple	-11.129
▁bachelor	-11.129
▁haulers	-11.1303
▁demonstra	-11.1303
▁pas	-11.1305
▁learner	-11.1314
▁later	-11.1315
▁tickets	-11.1325
▁commitments	-11.1329
▁upp	-11.1329
▁multiples	-11.1331
Weekly	-11.1332
▁electro	-11.1333
▁Represent	-11.1337
▁print	-11.1339
Wir	-11.1343
▁Familiar	-11.1346
▁provider	-11.1348
Central	-11.1349
▁Y	-11.1359
▁$22	-11.1371
14	-11.1375
▁Je	-11.1378
▁Willingness	-11.1378
▁passer	-11.14
▁Denn	-11.1403
▁Discounts	-11.141
▁producing	-11.1413
▁Architects	-11.1418
accident	-11.1446
▁verify	-11.1451
▁Dis	-11.1459
Own	-11.1464
automotive	-11.1467
moving	-11.1469
▁telephones	-11.147
Discount	-11.1476
fulfillment	-11.1478
▁Exc	-11.1478
motivation	-11.1481
▁Mechanic	-11.1481
preferabl	-11.1482
▁pilot	-11.1483
▁train	-11.1489
maintained	-11.1492
ported	-11.1493
▁object	-11.1498
Driven	-11.1498
▁$2	-11.1503
prendre	-11.1507
▁faster	-11.1519
bieten	-11.152
▁champions	-11.1528
▁Arbeit	-11.1532
change	-11.1532
▁label	-11.1534
econditioning	-11.1535
Qualifications	-11.1539
▁direkt	-11.155
▁Publisher	-11.1564
▁assign	-11.1566
▁Framework	-11.1572
▁va	-11.1575
▁electronic	-11.1577
licitations	-11.1581
▁Merchant	-11.1584
▁link	-11.1594
▁conceptual	-11.1604
Compliance	-11.1608
UT	-11.1612
▁sens	-11.1618
20	-11.1621
▁liais	-11.1625
▁Hypo	-11.1625
▁digitale	-11.1647
ray	-11.1649
base	-11.166
▁equivalen	-11.1663
55	-11.1676
formed	-11.1676
▁Sverige	-11.1682
▁obstacles	-11.1682
▁scientific	-11.1682
▁svenska	-11.1682
▁monetization	-11.1682
6.6	-11.1682
▁secteur	-11.1682
▁bodywork	-11.1682
▁simplify	-11.1682
▁explain	-11.1682
Gestion	-11.1683
▁Relations	-11.1683
▁tjnsten	-11.1684
▁rapport	-11.1684
▁Planner	-11.1687
▁prevention	-11.1688
▁projektledning	-11.1689
▁MD	-11.1691
▁iterating	-11.1692
ainbow	-11.1696
▁scenarios	-11.17
▁ta	-11.1707
▁VP	-11.1711
▁TV	-11.1711
▁transfer	-11.1717
▁Mentorship	-11.1719
▁SASE	-11.172
▁editing	-11.1721
▁NX	-11.1722
▁Monthly	-11.1723
▁tackle	-11.1725
▁waste	-11.1726
▁surveys	-11.1728
▁wait	-11.1732
Ad	-11.1733
▁segments	-11.1738
▁SOX	-11.1738
▁metal	-11.1738
itious	-11.1739
▁apps	-11.1745
▁put	-11.1745
▁efficiencies	-11.1748
▁head	-11.1748
▁Nashville	-11.1759
▁Specialists	-11.1769
▁produits	-11.1773
▁investigations	-11.1775
▁ut	-11.1782
▁Top	-11.1782
▁hr	-11.1785
400	-11.1786
PTO	-11.1796
▁Optimize	-11.1799
▁Hy	-11.1802
▁deployments	-11.1805
product	-11.1806
▁Collaborat	-11.1811
▁kandidate	-11.1813
▁innovations	-11.1814
▁ab	-11.1826
asonabl	-11.1831
who	-11.1832
▁documented	-11.1833
71	-11.1839
▁Port	-11.1846
▁$75	-11.1852
▁mis	-11.1861
▁mail	-11.1898
nya	-11.19
.,	-11.19
▁assemble	-11.1903
▁Junior	-11.1911
▁Certification	-11.1917
security	-11.1922
▁forte	-11.1928
Au	-11.1934
ks	-11.1944
elle	-11.1944
Dans	-11.1946
▁Contract	-11.1946
ibilidad	-11.195
handling	-11.1976
Oversee	-11.1976
ma	-11.1982
▁completed	-11.1983
▁timeliness	-11.1989
▁consult	-11.1989
hysical	-11.1993
▁outs	-11.1994
▁often	-11.2003
▁Attend	-11.2004
Initiatives	-11.201
gt	-11.2026
70	-11.204
▁dat	-11.2052
mi	-11.2052
13	-11.2055
40	-11.2058
▁PCB	-11.2063
▁cadence	-11.2068
▁Value	-11.2071
▁conversion	-11.2071
▁march	-11.2072
▁Saturday	-11.2072
▁nouvelle	-11.2076
▁narrative	-11.2076
UP	-11.2088
▁figure	-11.2088
▁produit	-11.2088
▁pm	-11.2091
▁gap	-11.2092
7","	-11.2096
▁demonstr	-11.2101
im	-11.2103
▁Workplace	-11.2106
▁graduate	-11.2115
▁crawl	-11.2116
▁Star	-11.2122
▁interfac	-11.2123
▁(10	-11.2127
▁tru	-11.2131
Register	-11.2145
▁appar	-11.2147
analyst	-11.215
aid	-11.2151
▁neue	-11.2152
▁stream	-11.2156
▁Som	-11.2167
▁autonomous	-11.217
▁hauler	-11.2176
▁photographe	-11.2179
Hyderabad	-11.2182
▁School	-11.2182
▁Zukunft	-11.2182
▁avionics	-11.2182
▁wiiings	-11.2182
▁trabalh	-11.2182
▁Flexdrive	-11.2182
▁Certified	-11.2182
▁comparable	-11.2182
▁acquire	-11.2182
▁engelska	-11.2183
▁Raton	-11.2184
▁agreed	-11.2184
▁fleet	-11.2184
▁utilization	-11.2185
▁diversidad	-11.2186
▁coursework	-11.2187
▁pragmatic	-11.2189
▁Accurately	-11.219
▁Rider	-11.2191
▁Asia	-11.2196
▁choose	-11.2198
▁Launch	-11.22
▁priority	-11.22
▁mobility	-11.22
▁compet	-11.2201
llow	-11.2202
▁Recruiter	-11.2204
▁spend	-11.2205
▁pride	-11.2208
▁cada	-11.2209
▁Ecosystems	-11.2212
▁Resourceful	-11.2213
▁Consulting	-11.2214
▁Dir	-11.2216
galement	-11.2218
▁threats	-11.2222
▁Provid	-11.2226
▁touchpoints	-11.2234
ousands	-11.2236
Establish	-11.224
▁panels	-11.225
▁artistic	-11.2252
5-	-11.2253
▁Onboarding	-11.2254
exceeding	-11.2268
▁Stockholm	-11.2273
▁indica	-11.2274
▁incorporat	-11.2274
▁Far	-11.2274
tt	-11.2287
▁refin	-11.2288
▁Wellbeing	-11.2297
Desire	-11.2298
▁provi	-11.2307
del	-11.2307
this	-11.2308
▁graphic	-11.2315
▁reconciliations	-11.2327
▁Effectively	-11.233
▁native	-11.2333
etirement	-11.2348
▁kn	-11.2353
▁summer	-11.2367
▁faire	-11.2371
project	-11.2379
uperior	-11.2391
▁Ri	-11.2391
▁Chi	-11.2402
BO	-11.2409
ure	-11.241
▁Principal	-11.2414
Inc	-11.2423
digital	-11.243
onstant	-11.2436
68	-11.2443
20:26:58.675	-11.2456
▁observ	-11.2457
▁invoices	-11.2457
▁bets	-11.2463
▁deli	-11.2471
▁cl	-11.2474
Base	-11.2478
ors	-11.2481
arbetar	-11.2485
Cloud	-11.2486
alto	-11.2493
Spotify	-11.2494
Pension	-11.2505
hand	-11.2505
learning	-11.2506
Deliver	-11.2507
Review	-11.2512
▁telle	-11.2515
informed	-11.2518
Deep	-11.2525
▁startups	-11.2528
38	-11.2529
fe	-11.2532
reviewed	-11.2534
▁Va	-11.2543
▁extrao	-11.2546
▁original	-11.2555
▁Frage	-11.2559
▁mode	-11.2568
1"	-11.2571
▁machines	-11.2571
▁verfg	-11.2572
engineering	-11.2575
▁kund	-11.2575
23	-11.2582
▁animations	-11.2592
neural	-11.2594
sell	-11.2595
▁z	-11.2613
▁outdoor	-11.2614
user	-11.2622
98	-11.2632
▁complexes	-11.2638
▁Willing	-11.2645
ning	-11.2648
▁debug	-11.2656
▁affect	-11.2665
tive	-11.2666
▁jou	-11.2669
▁vilke	-11.2671
▁Committe	-11.2672
▁defect	-11.2673
▁Interface	-11.2674
▁Bank	-11.2698
▁Scala	-11.2707
▁Fundamental	-11.2708
▁beneficial	-11.2708
▁communaut	-11.2708
▁intellectual	-11.2708
▁skrift	-11.2708
▁tangibl	-11.2708
▁freuen	-11.2708
▁evidence	-11.2708
▁mature	-11.2709
▁NBCU	-11.2709
▁telemetry	-11.2709
▁standardization	-11.271
▁tillsammans	-11.271
▁Max	-11.2712
▁brakes	-11.2712
▁authentication	-11.2712
▁news	-11.2712
▁Aeon	-11.2713
▁Ideen	-11.2715
▁machining	-11.2715
▁huge	-11.2716
▁collateral	-11.2716
▁recrutement	-11.2716
▁Facilities	-11.2717
2-	-11.2719
▁beverage	-11.2724
▁Outlook	-11.2727
▁Rapid	-11.2728
▁red	-11.273
nande	-11.2731
▁dexprience	-11.2732
▁mentality	-11.2738
▁Response	-11.2741
▁Card	-11.2747
▁creatively	-11.2748
▁shelf	-11.2749
▁attractive	-11.2749
▁haben	-11.275
stellung	-11.2753
▁projektledare	-11.2757
▁Stennis	-11.276
ci	-11.2771
▁formats	-11.278
▁ambitions	-11.2781
▁researchers	-11.2783
20:26:40.643	-11.2792
▁Programming	-11.2793
▁Cortex	-11.2793
Experienced	-11.2794
888	-11.2801
ki	-11.2804
gerne	-11.2817
▁Com	-11.282
▁nouvelles	-11.2821
▁stark	-11.2823
can	-11.2823
▁utilise	-11.2828
▁Certifications	-11.283
ier	-11.2834
▁Cyber	-11.2839
▁graphics	-11.284
ware	-11.2845
▁optimisation	-11.2853
dership	-11.2858
▁renewals	-11.2867
model	-11.2868
idades	-11.2871
▁am	-11.2881
▁zusammen	-11.2886
ile	-11.2886
passing	-11.2889
▁patients	-11.2909
▁todo	-11.2912
86	-11.2918
are	-11.2919
si	-11.2941
company	-11.2944
▁Det	-11.2946
▁infrastructures	-11.2949
▁diese	-11.2959
▁locals	-11.2961
▁voor	-11.2981
▁Projekt	-11.2981
he	-11.2982
Non	-11.2988
nb	-11.2992
▁Enhance	-11.3004
acc	-11.3006
▁numbers	-11.3007
Process	-11.3012
Particip	-11.3013
▁install	-11.3015
▁BA	-11.302
li	-11.3025
▁Model	-11.3029
75	-11.3029
▁Cost	-11.303
▁purpo	-11.3044
Python	-11.3044
▁formal	-11.3046
Passion	-11.3046
74	-11.3051
▁realis	-11.3055
dden	-11.3056
Self	-11.3059
working	-11.3059
Madrid	-11.3059
54	-11.306
Background	-11.306
Position	-11.306
Texas	-11.3061
Willingness	-11.3061
summer	-11.3061
lbs	-11.3075
▁AS	-11.3079
20:26:51.371	-11.3083
ol	-11.3085
De	-11.309
▁lean	-11.3093
Sie	-11.31
ses	-11.3101
46	-11.3104
Employee	-11.3121
Re	-11.3125
▁income	-11.3127
rez	-11.3143
▁Welt	-11.3144
▁guarantee	-11.3146
▁Operator	-11.3154
aimed	-11.316
▁calendar	-11.316
▁Nurse	-11.3161
▁treatment	-11.3161
dded	-11.3171
▁camera	-11.3185
▁Language	-11.3187
▁glo	-11.3196
▁weekend	-11.3198
acilitate	-11.3201
ndation	-11.3201
eg	-11.3208
▁trs	-11.3209
09	-11.321
▁nin	-11.3211
▁division	-11.3212
▁query	-11.322
▁Identifying	-11.3224
▁objective	-11.323
▁mass	-11.3231
▁hires	-11.3242
ite	-11.3253
iga	-11.3253
tes	-11.3253
▁kunskap	-11.3255
▁Beruf	-11.3264
▁Combinator	-11.3264
▁Messaging	-11.3264
▁verification	-11.3264
PeYa	-11.3264
▁significative	-11.3264
▁Gameplay	-11.3264
▁resourceful	-11.3264
▁DashPass	-11.3264
▁describe	-11.3264
▁fokus	-11.3264
▁competency	-11.3265
▁experiencia	-11.3265
▁entries	-11.3265
▁reinforce	-11.3265
81	-11.3266
▁caching	-11.3266
▁CPD	-11.3267
▁Generation	-11.3268
▁collaborateurs	-11.3271
▁Hadoop	-11.3272
▁litigation	-11.3272
▁Domain	-11.3273
▁balances	-11.3273
▁DOT	-11.3274
▁volution	-11.3274
▁arrangements	-11.3274
▁Invest	-11.3275
▁localization	-11.3275
▁offline	-11.3276
▁inception	-11.3276
▁Motivated	-11.3278
▁alerting	-11.328
▁Fund	-11.328
▁anskan	-11.328
▁modules	-11.3281
▁concisely	-11.3282
▁pneumatic	-11.3284
▁After	-11.3284
▁NoSQL	-11.3285
▁Bash	-11.3285
▁empresas	-11.3286
▁delays	-11.3286
▁Payable	-11.3286
▁fixtures	-11.3291
▁Just	-11.3292
▁MySQL	-11.3295
▁lapp	-11.3295
61	-11.3297
▁interven	-11.3299
▁Ideally	-11.33
▁Advantage	-11.3301
▁organised	-11.3302
▁diffrents	-11.3304
▁financing	-11.3304
▁Resources	-11.3305
▁blend	-11.3306
brick	-11.3308
▁usability	-11.3313
▁reference	-11.3315
▁files	-11.3316
▁activits	-11.3316
ciones	-11.3317
87	-11.3318
▁Student	-11.3319
▁investors	-11.3322
▁Advise	-11.3324
▁geographically	-11.3324
▁CPA	-11.3324
15	-11.3325
-6	-11.3329
▁emails	-11.3337
ctitio	-11.3342
▁genom	-11.3343
▁tire	-11.3347
▁knowledgeable	-11.335
▁smaller	-11.335
▁MLOps	-11.3354
27	-11.3354
▁rais	-11.3356
▁Influencer	-11.3366
▁older	-11.3369
▁Nurses	-11.3371
▁productive	-11.3371
▁attracting	-11.3372
▁Starship	-11.3378
▁obsessed	-11.3378
▁Te	-11.3381
▁grand	-11.3392
▁particip	-11.3415
▁Ihre	-11.3416
tez	-11.3422
ists	-11.3426
▁images	-11.3427
▁(8	-11.3434
▁theft	-11.3439
CP	-11.3441
33	-11.3444
▁cr	-11.3449
bde	-11.3455
uel	-11.3458
89	-11.3459
▁Texas	-11.3471
▁Note	-11.3473
▁period	-11.3481
▁Show	-11.3484
▁Businesses	-11.3488
▁komm	-11.3491
$23	-11.3502
▁World	-11.3505
ac	-11.3511
grade	-11.3514
▁commut	-11.3533
vers	-11.3537
▁dealing	-11.3563
▁interne	-11.3577
▁prioritized	-11.3579
▁makers	-11.3581
▁lever	-11.3586
ns	-11.3586
▁manufacture	-11.3596
▁nombreu	-11.3597
Assure	-11.36
▁Controls	-11.3611
Global	-11.3613
Operations	-11.3623
Google	-11.3627
▁Consistent	-11.3628
▁Scale	-11.3628
▁optimizations	-11.3633
▁characters	-11.3634
.00/	-11.3638
Human	-11.3641
Word	-11.3647
channel	-11.3647
Paris	-11.3648
Guest	-11.3648
rted	-11.3649
Take	-11.365
executive	-11.365
Complete	-11.3651
tier	-11.3662
gical	-11.3663
autres	-11.3666
▁Driven	-11.3669
DA	-11.3677
makers	-11.3679
DS	-11.3684
skill	-11.3693
▁Capacit	-11.3703
▁mjlighet	-11.3703
65	-11.3711
93	-11.3713
▁qualifie	-11.3714
67	-11.3726
62	-11.3729
▁trades	-11.3731
▁PC	-11.3732
05	-11.3733
▁peripheral	-11.3737
▁environnements	-11.3747
▁circuit	-11.3752
analyse	-11.3754
▁functionally	-11.3756
▁Retire	-11.3756
▁night	-11.3759
▁formulat	-11.3768
▁Products	-11.377
▁owns	-11.377
▁acces	-11.3773
20:26:44.941	-11.378
ai	-11.3782
▁beg	-11.3792
ck	-11.3798
▁retain	-11.3802
east	-11.3807
▁cater	-11.3812
26	-11.3817
▁layer	-11.3821
▁entreprise	-11.3824
▁sjlv	-11.3836
einer	-11.384
tions	-11.384
ES	-11.3841
▁flex	-11.3841
kommen	-11.3845
▁politi	-11.3849
ingenieur	-11.3851
▁Club	-11.3852
▁Geschlecht	-11.3852
▁consumables	-11.3852
▁cluster	-11.3852
▁Equipment	-11.3852
▁Veteran	-11.3852
▁stickiness	-11.3852
▁elkonstruktion	-11.3852
▁Protection	-11.3852
▁spacecraft	-11.3852
▁Device	-11.3853
RSU	-11.3853
▁Sector	-11.3853
▁paperwork	-11.3853
▁resilience	-11.3854
▁insightful	-11.3854
mileage	-11.3854
▁mailbox	-11.3855
▁heights	-11.3856
▁technological	-11.3856
▁unknown	-11.3858
▁supplies	-11.3858
▁temperature	-11.3859
▁demande	-11.386
▁Portuguese	-11.3861
▁feasibility	-11.3861
▁behov	-11.3861
▁ambassador	-11.3861
▁inte	-11.3862
▁fantasti	-11.3862
▁estate	-11.3863
▁math	-11.3865
▁safeguard	-11.3866
▁datos	-11.3866
▁manufacturers	-11.3866
▁validating	-11.3867
94	-11.3868
▁bon	-11.387
▁GitHub	-11.3873
▁proyectos	-11.3873
▁Frankfurt	-11.3873
ana	-11.3873
ren	-11.3879
▁securing	-11.3879
▁contrast	-11.388
vores	-11.3882
▁$175,000	-11.3883
▁az	-11.3883
▁GRC	-11.3886
▁Stakeholder	-11.3888
any	-11.389
1,000	-11.3894
▁entre	-11.3894
▁systematic	-11.3895
▁Uppsala	-11.3898
▁spn	-11.39
▁bygger	-11.39
▁recruiters	-11.3903
▁errors	-11.3907
▁everyday	-11.3908
▁producers	-11.391
▁Trade	-11.3911
ticas	-11.3911
▁Thinking	-11.3913
▁liaise	-11.3916
▁proposer	-11.3918
▁Gain	-11.3923
▁Release	-11.3924
aux	-11.3926
▁toggles	-11.3929
lying	-11.3933
mellan	-11.3934
ab	-11.3937
▁vet	-11.394
▁canary	-11.3941
▁operators	-11.3946
ncial	-11.3947
Leverag	-11.3958
▁fire	-11.3958
▁Val	-11.3966
posit	-11.3971
▁aktiv	-11.3978
nalti	-11.3979
▁Along	-11.398
minded	-11.3988
▁kultur	-11.3997
▁winning	-11.4002
iro	-11.4008
eren	-11.4012
▁Streams	-11.4014
CI	-11.4018
▁packaging	-11.4025
47	-11.4026
breaking	-11.403
▁internes	-11.4031
▁influencer	-11.4033
lt	-11.4033
tside	-11.4041
▁container	-11.4045
lden	-11.4047
_1	-11.4051
▁servers	-11.4057
17	-11.406
▁listing	-11.4065
▁styles	-11.4068
ner	-11.407
▁recherche	-11.4088
▁Internal	-11.409
▁sociales	-11.4091
▁Can	-11.4103
▁IL	-11.4107
▁net	-11.4114
▁Organize	-11.4117
ak	-11.4118
▁Think	-11.4122
Master	-11.4144
▁reconcil	-11.4146
Ing	-11.4149
▁id	-11.4157
ok	-11.4171
ving	-11.4172
▁rekryterings	-11.4174
▁configurations	-11.4175
au	-11.4186
▁manufactur	-11.4198
stream	-11.42
▁overcom	-11.4204
Act	-11.4205
50	-11.4214
tzung	-11.4216
▁minorit	-11.422
assistant	-11.4223
cout	-11.4231
estination	-11.4231
lich	-11.4233
Ensur	-11.4234
▁fram	-11.4235
ration	-11.4243
hybrid	-11.4245
ct	-11.4246
▁talento	-11.4251
▁surro	-11.4253
Diplm	-11.4253
California	-11.4264
▁vie	-11.4268
post	-11.4268
Dubai	-11.427
bottom	-11.4271
20:26:49.046	-11.4272
anglais	-11.4273
▁expenses	-11.4275
▁implemented	-11.4277
innovation	-11.4278
▁utilize	-11.4285
Of	-11.4296
▁maximiz	-11.4305
▁intern	-11.4312
Deli	-11.4319
1-	-11.433
▁price	-11.4331
adoption	-11.4343
▁Fl	-11.4355
▁simulation	-11.4358
nieur	-11.4359
▁book	-11.437
▁incentive	-11.4381
▁dream	-11.4381
▁PT	-11.4382
▁pos	-11.4386
▁invoice	-11.4389
▁rotat	-11.439
▁notif	-11.439
▁utilisateur	-11.4393
▁genre	-11.4399
▁sale	-11.4416
ere	-11.4418
OS	-11.4427
▁stress	-11.4428
program	-11.443
▁Owner	-11.4436
▁guard	-11.4438
IC	-11.4439
organisation	-11.444
▁suggest	-11.4441
ig	-11.4443
morable	-11.4461
90	-11.4468
▁earning	-11.4474
▁Speak	-11.4477
▁Affiliate	-11.4477
▁Characteristics	-11.4477
▁Confluence	-11.4477
▁Grafana	-11.4477
▁Mandarin	-11.4477
▁consensus	-11.4477
▁seguimiento	-11.4477
▁implications	-11.4477
▁sampling	-11.4477
▁Bootcamp	-11.4477
▁legislative	-11.4477
▁thermal	-11.4477
▁odors	-11.4477
▁Peacock	-11.4477
▁problmatique	-11.4477
▁lpande	-11.4477
▁1948	-11.4478
▁England	-11.4478
▁professionalism	-11.4478
▁visible	-11.4479
▁authorities	-11.4481
WHAT	-11.4481
▁awesome	-11.4482
structure	-11.4482
▁Typescript	-11.4486
▁PHP	-11.4486
▁plastic	-11.4486
▁III	-11.4487
▁durch	-11.4487
▁mechanisms	-11.4488
▁russi	-11.4488
▁Studium	-11.4488
▁Individual	-11.4489
▁Associates	-11.449
▁labor	-11.449
▁Payroll	-11.4492
An	-11.4494
▁curve	-11.4495
▁poss	-11.4497
▁projetos	-11.4499
▁tches	-11.4499
▁Optimization	-11.4499
▁Mapping	-11.45
rant	-11.4505
▁Troubleshoot	-11.4505
Define	-11.4505
▁kontakt	-11.4509
▁Administrative	-11.4513
▁swee	-11.4513
▁satisfactor	-11.4515
▁frmga	-11.4519
▁primer	-11.4519
▁operator	-11.4519
over	-11.4522
▁remove	-11.4523
▁continual	-11.4524
▁(20	-11.4525
▁Critical	-11.4525
▁helpful	-11.4525
▁Cry	-11.4526
▁...	-11.4535
▁complet	-11.4539
▁lu	-11.4539
▁Supervise	-11.454
▁specializ	-11.4541
▁conflicts	-11.4543
▁Gather	-11.4543
▁Now	-11.4546
▁polit	-11.4547
▁affecting	-11.4549
▁Thrive	-11.455
▁variances	-11.455
▁Assess	-11.4573
▁2026	-11.4575
▁induc	-11.4578
ocks	-11.458
▁eliminate	-11.4582
▁pu	-11.4586
ury	-11.4589
▁affrs	-11.4591
▁Modern	-11.4592
97	-11.4592
voir	-11.4596
▁corners	-11.4599
▁LA	-11.4605
SR	-11.461
▁logiciels	-11.461
▁AML	-11.4611
84	-11.4616
Har	-11.462
▁labels	-11.4625
kompetens	-11.4629
▁failures	-11.4633
▁bis	-11.4634
▁exempel	-11.4635
▁li	-11.4636
▁benchmarking	-11.4638
Program	-11.4643
ista	-11.4648
▁fond	-11.4655
79	-11.466
▁Medien	-11.4666
ni	-11.4668
▁zones	-11.4669
▁surfaces	-11.4671
space	-11.4673
Experi	-11.4678
▁Leading	-11.4681
▁anglais	-11.4684
▁adher	-11.4696
value	-11.4715
▁estimates	-11.4718
▁escalations	-11.4723
par	-11.4723
more	-11.4729
hol	-11.4743
▁Reviews	-11.4743
▁WA	-11.475
her	-11.4753
▁Pre	-11.4755
▁quivalent	-11.4769
▁contributors	-11.477
▁sectors	-11.4775
▁longer	-11.4779
Digital	-11.4784
▁recogniz	-11.4806
▁nuestro	-11.4807
Le	-11.481
eplacement	-11.4814
▁enforce	-11.4815
▁evaluations	-11.4819
hall	-11.4826
▁aff	-11.4827
▁Lua	-11.4841
▁mot	-11.4847
technician	-11.4852
riendly	-11.486
pe	-11.4861
dem	-11.4861
Valid	-11.488
nal	-11.4888
verbal	-11.4898
▁HA	-11.49
▁away	-11.49
▁chip	-11.4901
Engineering	-11.4906
77	-11.4907
maintenance	-11.4909
▁carriers	-11.4909
external	-11.491
Health	-11.491
▁otra	-11.4912
illingness	-11.4914
Operate	-11.4917
fretag	-11.4918
Research	-11.4919
solver	-11.4922
▁bir	-11.4927
Creative	-11.4931
Quality	-11.4931
Shanghai	-11.4932
City	-11.4934
Financial	-11.4936
Access	-11.4939
Head	-11.494
Present	-11.494
Mechanical	-11.4949
defined	-11.4949
▁geme	-11.4952
▁hitt	-11.4954
Reporting	-11.4956
▁idea	-11.4958
Bei	-11.4968
▁brief	-11.4976
▁Eviden	-11.4985
▁Groupe	-11.4997
▁utveckla	-11.4999
▁formula	-11.5008
prender	-11.5011
▁disposition	-11.5011
staff	-11.5013
▁negocio	-11.5025
▁compte	-11.5029
native	-11.503
▁clientes	-11.5031
▁proceso	-11.5038
▁requirement	-11.5039
▁investigation	-11.5039
▁recommendation	-11.504
▁entretien	-11.5044
▁Comfort	-11.5053
▁proposal	-11.5056
▁Clear	-11.5061
▁robotic	-11.5063
Santa	-11.5065
Represent	-11.5068
▁paiement	-11.5069
▁earn	-11.507
ley	-11.5078
nstead	-11.508
▁enter	-11.5082
▁prototype	-11.5085
room	-11.5085
▁flags	-11.5088
▁blog	-11.5097
▁quotidien	-11.51
system	-11.5107
▁+49	-11.513
24.00	-11.5135
▁Organization	-11.5137
Document	-11.5138
▁sich	-11.5143
HYBRID	-11.5143
▁Behinderung	-11.5143
▁Canaveral	-11.5143
▁MEDDIC	-11.5143
▁Mathematics	-11.5143
▁Vietnam	-11.5143
▁cosmetic	-11.5143
▁opgaver	-11.5143
▁suspension	-11.5143
▁PedidosYa	-11.5143
▁arbetsuppgifter	-11.5143
▁desperate	-11.5143
▁Airflow	-11.5144
▁Referral	-11.5144
▁SIEM	-11.5144
▁replenishment	-11.5144
▁nouveaux	-11.5144
▁Slack	-11.5144
▁remediation	-11.5144
▁Division	-11.5144
▁firmware	-11.5144
▁Procurement	-11.5144
▁vulnerabilities	-11.5144
▁frgor	-11.5144
▁outreach	-11.5144
▁zero	-11.5144
▁authority	-11.5144
▁inclusivity	-11.5145
▁loyalty	-11.5145
Participation	-11.5145
▁regulators	-11.5147
▁readiness	-11.5147
▁broadcast	-11.5147
▁trabajo	-11.515
▁constructive	-11.5151
▁relocation	-11.5151
▁nice	-11.5151
▁untersttzt	-11.5153
▁Postgres	-11.5154
▁Overview	-11.5154
▁exemplif	-11.5154
▁money	-11.5154
▁permet	-11.5155
▁objectifs	-11.5156
▁seasoned	-11.5156
▁religin	-11.5157
▁Manual	-11.5157
▁machinery	-11.5158
Abo	-11.5158
▁Trends	-11.5158
▁computing	-11.5159
▁dich	-11.5161
od	-11.5163
▁Dynamics	-11.5163
▁acceptance	-11.5165
▁property	-11.5166
▁krav	-11.5166
▁temps	-11.5167
▁queue	-11.5167
LK	-11.5168
▁programmatic	-11.5168
▁throughput	-11.5168
▁faon	-11.5169
▁Commerce	-11.517
▁Problem	-11.5171
▁Functions	-11.5172
▁decide	-11.5173
▁advisory	-11.5173
▁Desk	-11.5175
▁oprationnelle	-11.5176
▁memory	-11.5178
▁systme	-11.5179
▁principales	-11.5179
▁Swift	-11.5181
▁Music	-11.5181
▁JD	-11.5182
U	-11.5183
92	-11.5184
▁schematics	-11.5185
▁behavioral	-11.5185
▁Board	-11.5185
▁raw	-11.5186
▁adjacen	-11.5186
▁neighbor	-11.5191
▁efter	-11.5193
▁logging	-11.5194
▁chat	-11.5198
▁upgrades	-11.52
▁Projekten	-11.5201
▁AAA	-11.5208
▁ist	-11.5209
▁College	-11.521
▁Challenge	-11.521
▁BCI	-11.5213
▁trials	-11.5216
▁representation	-11.5234
▁predict	-11.5235
▁moments	-11.5238
ngot	-11.5238
som	-11.5241
▁Erfahrungen	-11.5242
▁plateformes	-11.5244
▁cur	-11.5245
ban	-11.5245
▁radio	-11.5247
▁Teammate	-11.5248
ding	-11.5254
SP	-11.5258
nder	-11.5258
▁Material	-11.5259
▁fans	-11.5268
▁Workday	-11.5269
▁2022	-11.5273
▁Kunden	-11.5276
▁GD	-11.5278
▁(9	-11.5278
20:26:57.786	-11.5281
91	-11.5281
serfahrung	-11.5285
▁May	-11.5286
782	-11.5289
yond	-11.5312
▁0	-11.5315
rent	-11.5318
▁reactive	-11.5321
20:26:50.073	-11.5322
▁grant	-11.5323
▁Valid	-11.5327
▁Ver	-11.5329
▁ob	-11.5338
Les	-11.5338
▁paternity	-11.5339
▁str	-11.5339
▁Advanc	-11.5345
nk	-11.5345
inte	-11.5345
▁Projects	-11.5349
78	-11.5358
20:26:41.625	-11.5362
match	-11.5369
filled	-11.5375
▁compute	-11.5376
▁kein	-11.5384
Ce	-11.5389
8,000	-11.5396
▁Paris	-11.54
ious	-11.5404
▁guides	-11.5415
avings	-11.5422
visualization	-11.5423
▁fluids	-11.5426
support	-11.5429
On	-11.5433
▁accommodate	-11.5436
▁Jos	-11.5437
▁uni	-11.5441
▁var	-11.5444
tory	-11.5449
hould	-11.5451
▁studios	-11.5452
departmental	-11.5456
▁$128,	-11.5459
▁Years	-11.5465
▁estn	-11.5468
▁IA	-11.5478
▁acteur	-11.5487
local	-11.5496
29	-11.5497
▁dela	-11.5504
uld	-11.5505
▁orientaci	-11.5513
▁inclusivo	-11.5513
▁SI	-11.5513
learn	-11.5515
▁Privat	-11.552
▁immers	-11.5527
▁$128,000	-11.5534
▁celebrated	-11.5536
▁volumes	-11.5543
▁unab	-11.5545
308	-11.5547
/3	-11.5548
Capacit	-11.5563
we	-11.5565
▁break	-11.5566
veloppement	-11.5567
ella	-11.5574
▁rota	-11.5577
▁wouldn	-11.558
cross	-11.5587
operations	-11.5589
nero	-11.5589
▁states	-11.5605
heir	-11.5608
▁Preventi	-11.5609
standard	-11.5612
preferred	-11.5616
USD	-11.5622
▁tal	-11.5633
▁express	-11.5635
Java	-11.5638
▁Visual	-11.5639
Requirements	-11.5642
88	-11.5645
6","	-11.5646
Starlink	-11.5646
scal	-11.5646
YC	-11.5647
▁werden	-11.5649
Redmond	-11.5651
Onsite	-11.5651
▁prefer	-11.5651
Comfortable	-11.5652
ural	-11.5653
paternity	-11.5653
Travel	-11.5654
carrying	-11.5655
mon	-11.5655
machine	-11.5656
▁volunteer	-11.5662
bl	-11.5668
Ready	-11.5669
▁quarter	-11.5672
ide	-11.5673
ED	-11.5682
sh	-11.5682
riving	-11.5686
▁solicit	-11.5686
▁70	-11.5688
11	-11.5693
▁assure	-11.5719
28	-11.5725
▁indirect	-11.5727
▁Environment	-11.5727
▁revolutioniz	-11.5729
57	-11.5741
106	-11.5742
▁deadline	-11.5747
▁commissioning	-11.5749
▁behaviour	-11.5751
▁Requirement	-11.5751
▁message	-11.5753
▁plateforme	-11.5753
▁nurse	-11.5761
▁Point	-11.5766
area	-11.5767
▁ms	-11.5771
▁creator	-11.5772
sumption	-11.5772
▁resolv	-11.5775
▁fic	-11.5776
testing	-11.5779
▁Event	-11.5782
▁sensor	-11.5784
lley	-11.5785
hoop	-11.5786
▁Ha	-11.5788
▁Partnership	-11.5794
ian	-11.5795
▁twist	-11.5796
▁compromis	-11.5802
fa	-11.5822
sharing	-11.583
▁Local	-11.5838
▁station	-11.584
▁Projekte	-11.5848
▁embed	-11.5849
▁logic	-11.5851
▁electric	-11.5851
neu	-11.5852
▁Americas	-11.5853
abteilung	-11.5858
unterschiedliche	-11.5858
▁Regulations	-11.5858
▁Welfare	-11.5858
▁academic	-11.5858
▁dexterity	-11.5858
▁diferente	-11.5858
▁radiography	-11.5858
▁Religion	-11.5858
▁Demand	-11.5858
stl	-11.5858
▁fumes	-11.5858
▁flexibel	-11.5858
▁elkraft	-11.5858
▁matire	-11.5858
▁Clara	-11.5858
▁meriterande	-11.5858
▁Fintech	-11.5858
▁Maven	-11.5858
▁credibility	-11.5858
▁rdaction	-11.5858
▁efficacement	-11.5858
servicenow	-11.5858
exec	-11.5859
▁Tactics	-11.5859
▁versatile	-11.586
▁agility	-11.586
▁worry	-11.586
▁politique	-11.586
▁libre	-11.5861
▁institutional	-11.5861
▁CDD	-11.5862
▁Alter	-11.5863
▁pratiques	-11.5863
▁bidra	-11.5863
▁summariz	-11.5864
▁reconditioning	-11.5865
▁arbetsmilj	-11.5865
ought	-11.5865
▁licensing	-11.5866
▁sizing	-11.5866
▁FATP	-11.5868
▁Firmware	-11.5868
▁Relationship	-11.5869
▁Transportation	-11.5869
▁Next	-11.587
▁pension	-11.5871
Clean	-11.5871
▁matrixed	-11.5871
▁adopt	-11.5872
▁rponse	-11.5872
jets	-11.5873
▁appointments	-11.5875
▁completeness	-11.5876
▁Pilot	-11.5878
▁org	-11.5879
▁sport	-11.5879
▁prime	-11.5879
▁optics	-11.588
trop	-11.5882
▁Laser	-11.5883
▁IFRS	-11.5883
▁creates	-11.5884
anco	-11.5887
▁Marketeer	-11.5887
▁OKRs	-11.5888
▁dados	-11.589
▁clearance	-11.5892
▁Exemp	-11.5895
▁staging	-11.5897
▁Watch	-11.5899
EDD	-11.5899
▁Superior	-11.5902
Qu	-11.5909
ados	-11.591
76	-11.5911
▁NBC	-11.5912
ABO	-11.5912
▁ET	-11.5915
▁Unternehmens	-11.5916
dollar	-11.5916
▁EU	-11.5919
▁Up	-11.592
go	-11.592
▁tcnicas	-11.5926
▁First	-11.593
▁teknik	-11.593
▁Run	-11.5932
▁multidisciplina	-11.5932
▁desktop	-11.5935
▁contexte	-11.594
ejo	-11.5943
isation	-11.5943
▁Standards	-11.5946
illar	-11.5947
▁Close	-11.5954
▁checkout	-11.5955
▁handoff	-11.5956
hours	-11.5958
▁Malm	-11.596
▁nurses	-11.5962
▁coats	-11.5963
▁gen	-11.5965
▁problemas	-11.5973
▁Embrac	-11.5975
▁Zendesk	-11.5975
▁Chicago	-11.5975
▁Implementation	-11.5976
optimisation	-11.5978
▁worksite	-11.5979
▁sttta	-11.5981
▁ny	-11.6014
▁comply	-11.6017
amento	-11.6018
▁utveckling	-11.6021
▁Becom	-11.6023
11,	-11.6025
24	-11.6026
▁Structures	-11.6029
▁Channels	-11.603
▁Ze	-11.6038
505	-11.6044
▁thing	-11.6044
face	-11.6052
97,6	-11.6056
▁portion	-11.6059
▁Lab	-11.6072
▁Present	-11.6078
▁pull	-11.6082
▁historic	-11.6089
20:26:58.213	-11.61
das	-11.61
BS	-11.6104
▁impacts	-11.6122
ised	-11.6126
96	-11.613
Day	-11.6134
▁advancements	-11.6144
51	-11.6144
▁intgr	-11.6145
stter	-11.6145
▁papers	-11.6147
651	-11.6149
▁potencia	-11.6157
field	-11.6157
▁architect	-11.6159
▁Evolve	-11.616
manning	-11.6162
enerous	-11.6171
▁modes	-11.6172
▁fin	-11.6173
hief	-11.6174
▁voc	-11.6179
▁desarroll	-11.6183
general	-11.6183
▁Drivers	-11.6194
▁escalat	-11.6208
uhai	-11.6208
rie	-11.6214
0","	-11.6218
gic	-11.6222
▁Technicians	-11.623
▁Operate	-11.6238
▁stored	-11.6247
▁registers	-11.6248
▁count	-11.625
▁$20	-11.6251
ational	-11.6252
▁iterations	-11.6255
▁futur	-11.6258
segurar	-11.6266
VS	-11.6271
▁Networking	-11.6276
▁positiv	-11.6286
▁Adhere	-11.6286
▁pursu	-11.6289
▁trivs	-11.6294
▁membre	-11.6296
▁Labor	-11.6299
ated	-11.63
TON	-11.6305
tify	-11.6312
▁ihre	-11.6313
BL	-11.6314
ho	-11.6315
Co	-11.6318
TE	-11.6334
▁travaille	-11.6335
Open	-11.6335
tice	-11.6338
▁Prefer	-11.6341
▁Centre	-11.6345
brand	-11.6353
▁powers	-11.6353
delivery	-11.6358
▁equip	-11.6361
▁hold	-11.6364
af	-11.6365
▁opening	-11.6368
edan	-11.637
▁Zu	-11.637
▁contacto	-11.6372
▁videos	-11.6378
▁allocat	-11.6379
▁Deutsch	-11.6383
80	-11.6383
▁Look	-11.6387
Technician	-11.6387
▁comfort	-11.6388
Strategic	-11.6388
▁ambition	-11.6392
▁Er	-11.6393
volving	-11.6394
nser	-11.6396
▁Active	-11.6396
built	-11.6398
STARLINK	-11.6402
prem	-11.6403
▁orientat	-11.6408
▁talents	-11.641
KPIs	-11.6413
Consultant	-11.6415
tral	-11.6417
Personal	-11.6418
Provid	-11.6418
inclusion	-11.6418
give	-11.6419
Engage	-11.642
France	-11.642
mmigration	-11.6421
Entry	-11.6421
Suite	-11.6422
internship	-11.6423
Proficient	-11.6423
Exprience	-11.6424
Mentor	-11.6425
20:26:59.346	-11.6434
Area	-11.6434
▁Designers	-11.6436
Secur	-11.6437
force	-11.6439
kultur	-11.644
▁Platforms	-11.6443
General	-11.6449
Core	-11.6452
▁Discover	-11.6457
▁determin	-11.6466
vent	-11.6469
▁mainten	-11.6483
▁Bewerbung	-11.649
kind	-11.6494
▁wearable	-11.65
▁besiktnings	-11.6502
▁format	-11.6502
▁Ge	-11.6507
▁informatique	-11.6511
▁Activator	-11.6512
ups	-11.6514
▁panel	-11.6514
selling	-11.6517
▁Estate	-11.6519
▁protocol	-11.6521
▁Materials	-11.6525
▁moment	-11.6525
▁settlement	-11.6526
Mid	-11.6528
▁KPI	-11.6529
▁situation	-11.6533
arly	-11.6539
SM	-11.654
▁assignment	-11.6549
▁Entwicklung	-11.6554
▁hospital	-11.6555
roligt	-11.6562
RC	-11.6565
3","	-11.6565
$123,	-11.6567
▁twi	-11.6578
▁expos	-11.6582
72	-11.6588
RF	-11.6596
08	-11.6601
operative	-11.6602
ld	-11.6613
▁SD	-11.6615
av	-11.6616
▁professionnel	-11.6618
▁motiv	-11.6627
▁Assassin	-11.6627
▁Further	-11.6627
▁SUPPORT	-11.6627
▁Verantwortung	-11.6627
▁collgues	-11.6627
▁contraintes	-11.6627
▁insuffl	-11.6627
▁Stripe	-11.6627
▁nutrition	-11.6627
▁fritid	-11.6627
▁reusability	-11.6627
▁enthusiasm	-11.6627
▁fundraising	-11.6627
▁groceries	-11.6627
▁straight	-11.6627
▁Transformation	-11.6627
▁repetitive	-11.6627
▁DACH	-11.6627
▁hvor	-11.6627
▁webinars	-11.6627
▁Experimentation	-11.6627
▁adequate	-11.6627
▁Besides	-11.6627
▁MVP	-11.6628
▁humble	-11.6628
▁Blick	-11.6628
▁collaborator	-11.6629
▁spearhead	-11.6629
dominant	-11.6629
▁peu	-11.663
▁niveaux	-11.6631
▁strategists	-11.6632
▁purchasing	-11.6632
▁unbox	-11.6632
▁deviations	-11.6632
▁squat	-11.6633
▁innebr	-11.6633
▁ttig	-11.6634
▁racks	-11.6634
▁Verified	-11.6634
▁codebase	-11.6635
Phone	-11.6636
ifying	-11.6637
▁statistics	-11.6638
cumbe	-11.6638
▁injection	-11.6638
▁Elastic	-11.6638
▁Reconciliation	-11.6639
▁Javascript	-11.6639
▁Curious	-11.6639
▁adaptability	-11.6639
▁index	-11.6639
▁stratgiques	-11.6641
▁piece	-11.6641
▁Stelle	-11.6643
▁RDS	-11.6644
▁Creed	-11.6647
▁Auction	-11.6649
▁playlists	-11.665
▁stacks	-11.665
▁institutions	-11.665
▁APAC	-11.6654
▁SMB	-11.6655
▁Arbeitsweise	-11.6655
▁OEM	-11.6656
MBA	-11.6656
▁Diploma	-11.6656
▁Positive	-11.6656
▁Rust	-11.666
nterior	-11.6662
▁nosso	-11.6665
▁approved	-11.6666
ttention	-11.6672
▁Park	-11.6672
▁GIS	-11.6673
Ingnieurs	-11.6676
CPG	-11.6679
▁Dance	-11.668
▁participants	-11.6683
▁correctly	-11.6683
▁word	-11.6684
▁Enjoy	-11.6684
▁Tu	-11.6684
▁Video	-11.6687
Ho	-11.6688
▁Front	-11.669
8","	-11.669
▁nur	-11.669
▁Query	-11.6691
RP	-11.6692
▁observation	-11.6694
but	-11.6695
▁fler	-11.6698
▁upsell	-11.6698
devote	-11.6699
mong	-11.6699
▁AP	-11.6699
▁industriell	-11.6701
▁filings	-11.6708
▁chemicals	-11.671
▁installing	-11.6711
NB	-11.6719
▁streamlined	-11.6719
▁ethni	-11.6719
▁standardize	-11.672
▁edit	-11.6723
▁rpon	-11.6726
▁posture	-11.6727
nvironnement	-11.6729
▁frst	-11.6736
▁Sunnyvale	-11.6737
▁Documentation	-11.674
urgery	-11.6741
▁mettre	-11.6748
▁Writer	-11.675
53	-11.6751
▁lors	-11.6752
▁Interpret	-11.6756
▁MI	-11.6761
▁HRBP	-11.6765
lacin	-11.6769
▁Ser	-11.6771
▁economics	-11.6772
▁circuits	-11.6774
▁vers	-11.6776
▁SPI	-11.6782
ft	-11.6782
▁offres	-11.6785
▁Analyse	-11.6788
▁sharp	-11.6793
days	-11.6795
▁adaptes	-11.6796
▁educat	-11.6799
▁construir	-11.6803
▁builder	-11.6811
6-	-11.6814
▁Expectations	-11.6814
▁aut	-11.6816
Plu	-11.6822
ponsorship	-11.6825
▁inputs	-11.6828
OR	-11.6832
ag	-11.6834
▁log	-11.6837
gang	-11.6848
▁laboral	-11.6851
▁investigate	-11.6856
ande	-11.6857
ring	-11.686
▁patch	-11.6869
▁lighting	-11.6874
GC	-11.688
tels	-11.6882
▁intresse	-11.6887
Tempora	-11.6887
▁sant	-11.69
▁vs	-11.6901
▁notes	-11.6905
lind	-11.6907
▁hazards	-11.6916
▁autres	-11.6916
ward	-11.6919
▁Madrid	-11.692
ach	-11.6921
07	-11.6933
▁chances	-11.6935
ortar	-11.6935
▁robots	-11.6938
32	-11.6949
▁Handle	-11.6949
ern	-11.6955
▁dev	-11.6958
ste	-11.6959
▁Guests	-11.696
▁utmana	-11.6989
ova	-11.699
els	-11.7
▁chef	-11.7
▁considerabl	-11.7003
▁Investigat	-11.7005
client	-11.7007
through	-11.7014
▁driv	-11.7022
▁Englisch	-11.7038
▁register	-11.7049
enden	-11.7049
▁cas	-11.705
▁auditors	-11.7056
▁wiring	-11.7058
▁abi	-11.7063
▁CP	-11.7069
-7-	-11.7072
▁Border	-11.708
box	-11.7085
1-3	-11.7086
▁Des	-11.7088
▁Rest	-11.7092
tools	-11.7097
phone	-11.7099
▁ent	-11.7111
ansvar	-11.7113
▁CS	-11.7114
▁RP	-11.7114
▁prop	-11.7124
▁aus	-11.7124
hngi	-11.7126
▁min	-11.7134
Formation	-11.7135
alit	-11.7137
rogward	-11.7138
SW	-11.7161
▁(1	-11.7164
meters	-11.7165
scher	-11.7165
▁spec	-11.7172
edad	-11.7172
loading	-11.7186
▁Long	-11.7192
▁Integrate	-11.7197
▁compose	-11.7202
▁compile	-11.7205
▁tel	-11.721
▁Initiatives	-11.7223
Advance	-11.7224
▁Ch	-11.7225
▁say	-11.7225
rdinar	-11.7227
▁ra	-11.7228
Finance	-11.7229
▁commerciale	-11.7231
▁SOC	-11.7234
CV	-11.7235
representative	-11.7238
Execute	-11.7242
▁Whats	-11.7243
lisation	-11.7244
▁Applications	-11.7245
Leadership	-11.7248
Android	-11.7249
▁contribue	-11.7249
▁Audit	-11.7252
Dublin	-11.7252
div	-11.7252
▁12-	-11.7253
architectural	-11.7253
Exceptional	-11.7254
Optimize	-11.7255
Fluency	-11.7257
▁franchises	-11.7258
Proactively	-11.7261
full	-11.7262
▁Ho	-11.7263
Effectively	-11.7264
▁Sta	-11.7268
Follow	-11.7271
workers	-11.7274
usammenarbeit	-11.7275
▁DI	-11.7281
exprience	-11.7283
▁ralise	-11.7284
▁Operation	-11.7291
▁bigge	-11.7292
▁centre	-11.7302
ICA	-11.7303
intelligence	-11.7305
20:26:55.101	-11.7309
directed	-11.7309
4-	-11.732
nep	-11.7323
▁runs	-11.7327
37	-11.7327
▁konstruktion	-11.7328
back	-11.7329
▁res	-11.733
▁23	-11.733
▁conversation	-11.7344
▁ncessaire	-11.7345
▁eventual	-11.7348
you	-11.735
▁$180,000	-11.7351
▁lien	-11.7351
▁official	-11.7352
▁vil	-11.7352
▁Receptionist	-11.7352
▁difference	-11.7353
▁jurisdiction	-11.7354
▁pickup	-11.7356
▁mtier	-11.7356
▁PLC	-11.7358
▁advertiser	-11.7358
▁innovativ	-11.736
▁film	-11.7361
▁Dogs	-11.7362
▁Pipeline	-11.7362
▁rekrytering	-11.7363
▁pain	-11.7364
bd	-11.7367
▁sh	-11.7372
structured	-11.7374
▁SF	-11.7374
▁industri	-11.7384
▁Demonstra	-11.7386
▁Label	-11.7389
▁tell	-11.7389
▁regression	-11.7389
▁activation	-11.7394
owned	-11.7395
▁Capab	-11.7395
▁Apps	-11.7401
▁forth	-11.7401
▁1:	-11.7405
▁?	-11.7406
uestra	-11.7411
Pre	-11.7412
dy	-11.7418
Sens	-11.7423
▁ans	-11.7424
▁reel	-11.7429
▁Collect	-11.7433
lagen	-11.7433
▁samarbeta	-11.7442
$97,	-11.7443
▁Compute	-11.7444
▁Database	-11.7452
▁Operat	-11.7452
Bengaluru	-11.746
▁Jersey	-11.746
▁TensorFlow	-11.746
▁cyberscurit	-11.746
▁encyclopaedia	-11.746
Meticulous	-11.746
▁Herkunft	-11.746
▁Meaningful	-11.746
▁Vetlexicon	-11.746
▁entrevista	-11.746
▁hierarchy	-11.746
▁imperfections	-11.746
▁motsvarande	-11.746
▁surgeries	-11.746
▁vielfltige	-11.746
▁courteous	-11.746
▁importa	-11.746
▁legislation	-11.746
▁acquiring	-11.746
▁OFFER	-11.7461
▁rejoignez	-11.7461
▁tnico	-11.7461
krkort	-11.7461
Jugamos	-11.7461
▁diligence	-11.7461
Overnight	-11.7461
xperincia	-11.7461
▁resultados	-11.7461
▁500!	-11.7461
▁spread	-11.7461
▁moderation	-11.7461
▁vilja	-11.7461
▁cooperation	-11.7462
▁Campus	-11.7462
WAN	-11.7462
▁laboratory	-11.7462
▁prix	-11.7462
690-	-11.7463
▁friction	-11.7463
▁receivable	-11.7463
▁prenantes	-11.7463
janitorial	-11.7463
▁multinational	-11.7463
hensi	-11.7464
▁interviewing	-11.7464
▁DOE	-11.7464
▁Menschen	-11.7464
▁travers	-11.7465
▁resourcing	-11.7465
▁liquidity	-11.7466
▁nivel	-11.7466
▁shipped	-11.7466
▁specialization	-11.7466
▁Fraud	-11.7466
▁realization	-11.7466
ux	-11.7467
▁connectivity	-11.7467
▁demonstrations	-11.7467
▁conversational	-11.7468
▁tradeoffs	-11.7469
▁rata	-11.7469
CCP	-11.747
▁extraction	-11.747
▁enrichment	-11.747
▁President	-11.747
rahmenrichtlinie	-11.7471
▁Arbeiten	-11.7471
▁dernire	-11.7471
▁substantial	-11.7472
▁PBF	-11.7472
▁Controlling	-11.7473
▁desenvolvimento	-11.7474
▁Coordination	-11.7475
▁premier	-11.7475
▁recreation	-11.7475
▁properties	-11.7476
▁luc	-11.7476
▁Lake	-11.7476
▁abroad	-11.7476
▁debt	-11.7476
▁$219,	-11.7477
▁parameters	-11.7479
▁Environmental	-11.7481
▁promove	-11.7482
▁silicon	-11.7482
▁endpoint	-11.7482
za	-11.7482
▁rtt	-11.7483
▁booking	-11.7484
VFX	-11.7484
▁complement	-11.7486
▁boost	-11.7488
▁CAN	-11.7489
▁identified	-11.7489
▁advantageous	-11.749
▁Selenium	-11.749
▁ONLY	-11.749
▁Together	-11.749
▁Docs	-11.7491
LNG	-11.7492
▁ajuste	-11.7493
▁Camps	-11.7494
▁currency	-11.7496
▁Greenhouse	-11.7498
▁downtime	-11.7501
▁Maya	-11.7503
▁carts	-11.7506
▁scan	-11.7507
couvrez	-11.7508
▁editors	-11.7508
▁$100,000	-11.7508
▁EV	-11.7509
▁Frontend	-11.751
▁arbets	-11.7511
▁balans	-11.7512
▁caso	-11.7512
▁IC	-11.7513
▁quotidienne	-11.7515
▁sistemas	-11.7516
▁provisioning	-11.752
▁Months	-11.7522
▁calculations	-11.7522
▁limits	-11.7524
cker	-11.7525
▁FinOps	-11.7526
600	-11.7528
▁Motion	-11.7531
▁submissions	-11.7532
ittle	-11.7532
▁Total	-11.7533
solve	-11.7534
▁static	-11.7536
▁district	-11.7538
▁Post	-11.754
▁contractors	-11.7541
▁fixed	-11.7543
▁GIT	-11.7548
▁minst	-11.7553
▁Deal	-11.7556
▁else	-11.7556
▁realize	-11.7562
▁desarrollar	-11.7567
▁analyser	-11.7569
Pick	-11.757
20:26:56.194	-11.7573
Pleas	-11.7575
▁ticketing	-11.7579
▁grande	-11.7579
ely	-11.7579
▁una	-11.758
▁sellers	-11.7582
▁Sco	-11.7584
▁Payments	-11.7584
dir	-11.7585
▁Pr	-11.7586
wi	-11.7589
▁synchronous	-11.7589
jes	-11.7592
5)	-11.7593
lig	-11.7598
oreign	-11.7599
▁Such	-11.76
▁mining	-11.7601
▁tra	-11.7604
ague	-11.7608
▁produced	-11.7608
▁correction	-11.7612
▁Essential	-11.7614
▁bred	-11.7614
▁DevSecOps	-11.7617
▁Physics	-11.762
NAS	-11.7621
▁links	-11.7624
▁Pick	-11.7626
▁treatments	-11.7626
▁marketers	-11.7628
▁instruments	-11.7629
▁jrnvgs	-11.763
▁photo	-11.7632
▁Singapore	-11.7635
▁POS	-11.7641
▁fest	-11.7651
mna	-11.7667
▁modi	-11.767
▁VR	-11.7671
▁POC	-11.7678
utveckling	-11.7686
body	-11.7692
buy	-11.7696
▁Practices	-11.7698
▁vouchers	-11.77
▁GA	-11.7701
▁Promote	-11.7703
aving	-11.7707
▁Consult	-11.7709
▁programmes	-11.7709
▁Regular	-11.7722
▁spo	-11.7724
▁Term	-11.7727
▁comp	-11.7731
▁ease	-11.7734
▁customize	-11.7735
tar	-11.7736
▁harm	-11.7745
▁partenaires	-11.7747
ied	-11.7766
Continuous	-11.7771
how	-11.7773
▁walking	-11.7773
rp	-11.7777
xplore	-11.7779
▁permett	-11.7781
▁banks	-11.7786
▁internships	-11.7786
20:26:50.873	-11.7791
▁assurer	-11.7795
23.00	-11.7795
▁press	-11.7797
▁interns	-11.7797
▁followed	-11.78
▁SME	-11.7802
39	-11.7808
▁Cha	-11.7814
▁groupe	-11.7815
▁ar	-11.7823
▁souten	-11.7825
ably	-11.7827
▁2:	-11.7835
20:26:40.214	-11.7837
tude	-11.7837
▁ST	-11.7838
arge	-11.7838
▁Vr	-11.7839
▁Une	-11.784
▁Comm	-11.7841
denna	-11.7841
▁ca	-11.7842
▁host	-11.7851
▁centraliz	-11.7855
121.	-11.7857
!"	-11.7873
▁periodic	-11.7877
CS	-11.7891
▁requested	-11.79
direct	-11.79
▁DC	-11.79
▁showcase	-11.7903
▁employs	-11.7904
▁$32	-11.7905
MM	-11.7907
▁compr	-11.7916
EE	-11.7932
▁El	-11.7938
▁strengths	-11.7954
ik	-11.7955
▁Inter	-11.7956
amlioration	-11.7959
ycka	-11.7962
▁Appli	-11.7963
,770	-11.7967
▁Tik	-11.797
gar	-11.7978
ROG	-11.7985
▁developments	-11.7987
▁acc	-11.7989
nations	-11.7991
▁Editor	-11.7993
▁1158	-11.8
▁Wort	-11.8005
▁going	-11.8006
3,	-11.8024
▁solu	-11.8027
mun	-11.8032
▁Based	-11.8034
▁mng	-11.8034
rnos	-11.8035
Se	-11.8041
lamak	-11.8052
automation	-11.806
▁tak	-11.8065
state	-11.8074
▁sat	-11.8075
99	-11.8078
gun	-11.8093
shift	-11.8101
20:26:48.675	-11.8109
Responsibility	-11.8111
Career	-11.8114
▁method	-11.8115
ny	-11.8115
▁anskning	-11.8124
rake	-11.8125
▁indoor	-11.8134
Salary	-11.8139
shared	-11.8139
Plan	-11.8143
computer	-11.8144
uity	-11.8145
▁St	-11.8148
Handle	-11.8149
code	-11.8152
Client	-11.8152
member	-11.8154
Field	-11.8155
▁verksamhet	-11.8156
Machine	-11.8157
Advertising	-11.8157
Montreal	-11.8158
Location	-11.816
packaging	-11.8161
GCP	-11.8161
Scrum	-11.8162
▁organis	-11.8162
Florida	-11.8164
▁wear	-11.8165
▁wo	-11.8167
producing	-11.8167
▁Profil	-11.8173
Dasher	-11.8183
tear	-11.8185
ral	-11.8189
frai	-11.8191
▁bio	-11.8194
teams	-11.8199
nombre	-11.8206
▁profile	-11.8212
▁ski	-11.8213
▁vector	-11.8215
▁tar	-11.8218
One	-11.8219
plan	-11.8223
now	-11.823
▁Week	-11.8233
.50	-11.8235
kring	-11.8239
6,000	-11.824
sports	-11.824
▁RVN	-11.8241
.""	-11.8241
gem	-11.8242
▁analytic	-11.8243
mechanic	-11.8244
neut	-11.8245
mglichkeiten	-11.8246
▁dates	-11.8246
▁fault	-11.8247
▁(2	-11.8252
▁backlog	-11.8257
▁technologique	-11.8258
▁morning	-11.8259
dre	-11.8259
▁segment	-11.826
▁substitution	-11.826
▁preference	-11.826
▁teammate	-11.8262
▁economic	-11.8263
20:26:54.711	-11.8266
▁calibration	-11.8267
▁dru	-11.8267
▁$352,	-11.8268
▁land	-11.8269
depend	-11.8269
▁identi	-11.8271
▁branch	-11.8274
▁proces	-11.8275
▁contrat	-11.828
▁trial	-11.8287
▁skillset	-11.8297
▁perspectiv	-11.8299
ignificant	-11.8301
▁weld	-11.8303
▁variance	-11.8304
▁Kommunikations	-11.8312
▁harness	-11.8314
▁enhancement	-11.8315
▁Mon	-11.8316
holde	-11.8317
▁REQ	-11.8318
▁x	-11.8319
▁relationnel	-11.8324
nterview	-11.8325
▁configur	-11.8347
▁configure	-11.8348
▁tailor	-11.8349
▁pl	-11.8354
▁amlior	-11.8356
▁recruit	-11.8358
gov	-11.8359
▁qualifying	-11.8365
▁transformations	-11.8367
▁catalog	-11.8368
users	-11.8369
portar	-11.8369
▁Transport	-11.8369
▁Wasser	-11.8369
Jakarta	-11.8369
▁Schrift	-11.8369
▁Vernderungen	-11.8369
▁arbetsgivare	-11.8369
STARSHIP	-11.8369
embauche	-11.8369
▁ANSYS	-11.8369
▁DynamoDB	-11.8369
▁Missouri	-11.8369
▁Scheme	-11.8369
▁Swedish	-11.8369
▁complaints	-11.8369
▁convainc	-11.8369
▁synthse	-11.8369
▁varandra	-11.8369
Falcon	-11.8369
devoteam	-11.8369
▁terrain	-11.8369
▁crativit	-11.8369
Washing	-11.8369
▁Ireland	-11.837
▁Mattias	-11.837
▁juggl	-11.837
▁carrera	-11.837
▁Vietnamese	-11.837
▁meticulous	-11.837
ping	-11.837
▁registration	-11.837
▁typography	-11.837
▁Vector	-11.837
▁Powerpoint	-11.837
▁AutoCAD	-11.837
▁library	-11.837
▁kick	-11.837
▁gestalten	-11.837
7853	-11.837
▁Minh	-11.837
▁varierande	-11.837
▁calculator	-11.837
▁diplm	-11.837
▁aussi	-11.8371
▁2017	-11.8371
▁delegating	-11.8373
▁simply	-11.8373
▁Advocacy	-11.8373
Illinois	-11.8373
▁revenues	-11.8373
▁JF	-11.8374
▁marque	-11.8374
Disclosure	-11.8374
▁problmes	-11.8375
▁tissue	-11.8376
▁campagnes	-11.8376
▁postu	-11.8377
▁Bewerbungen	-11.8377
▁lux	-11.8378
▁structuring	-11.8378
▁mchten	-11.8379
Objective	-11.8379
▁domestically	-11.838
▁outsourcing	-11.8381
▁$165,000	-11.8381
▁mutig	-11.8381
▁SEO	-11.8382
▁composition	-11.8383
▁suivant	-11.8383
▁Romania	-11.8383
▁STEM	-11.8383
▁Premium	-11.8383
▁Ownership	-11.8383
▁defense	-11.8383
▁attendance	-11.8384
▁Presentation	-11.8384
▁spannende	-11.8384
▁Teamcenter	-11.8385
▁reuse	-11.8385
▁pillars	-11.8386
▁razor	-11.8386
▁Brain	-11.8386
▁certified	-11.8387
▁SLA	-11.8387
▁mechanics	-11.8388
▁Image	-11.8389
▁omrden	-11.839
▁borderless	-11.8392
▁alerts	-11.8394
▁Path	-11.8394
▁automatiss	-11.8398
▁Robotics	-11.8399
▁personlig	-11.8399
Ca	-11.8399
▁evenings	-11.8401
▁Festival	-11.8402
▁Occasional	-11.8402
▁Argo	-11.8403
▁Saint	-11.8403
▁Online	-11.8404
▁innovants	-11.8405
▁ladders	-11.8406
▁populations	-11.8406
▁Dr	-11.8408
▁hjlpe	-11.841
▁superb	-11.8412
lies	-11.8414
▁nossa	-11.8414
-2023	-11.8415
▁Rewards	-11.8415
▁controllers	-11.8416
▁articles	-11.8416
▁Law	-11.8417
▁konsulent	-11.8418
▁forming	-11.8419
5,5	-11.842
▁mandatory	-11.8422
▁framgngs	-11.8423
apprentissage	-11.8429
▁intro	-11.8429
▁ml	-11.843
desk	-11.8432
▁OS	-11.8433
It	-11.8435
▁squads	-11.8437
▁vnements	-11.8439
▁Providers	-11.844
▁LATAM	-11.8441
▁Siemens	-11.8442
▁Photoshop	-11.8442
▁Recruitment	-11.8443
ensemble	-11.8448
ITGC	-11.8449
▁recurr	-11.8449
▁BE	-11.845
▁upselling	-11.8451
▁ch	-11.8451
▁Adoption	-11.8457
▁Sound	-11.8462
▁architecting	-11.8462
▁stable	-11.8463
eavy	-11.8465
▁Processes	-11.8467
▁talking	-11.847
▁cri	-11.8471
nes	-11.8476
ique	-11.8478
82	-11.8478
▁veran	-11.8479
jeux	-11.8481
ektionschef	-11.8481
▁download	-11.8482
cka	-11.8483
▁LLMs	-11.849
anitorial	-11.849
containerization	-11.8493
▁Rolle	-11.8497
▁ordering	-11.85
▁Prometheus	-11.8502
placement	-11.8502
▁authoriz	-11.8504
▁jeux	-11.8509
▁allem	-11.8511
een	-11.8511
▁internt	-11.8514
▁pad	-11.8517
▁unter	-11.852
▁bending	-11.8521
▁Cash	-11.8522
sion	-11.8522
▁genres	-11.8523
▁gu	-11.8528
Daily	-11.8534
▁Events	-11.854
▁bid	-11.8543
▁2-4	-11.8545
pleas	-11.8548
Tag	-11.8549
▁multitasking	-11.8551
▁joy	-11.8552
▁wind	-11.8555
jav	-11.8558
▁Respond	-11.856
▁Unity	-11.8562
cel	-11.8567
indicateurs	-11.8568
NC	-11.857
▁bold	-11.8571
▁Fusion	-11.8571
CC	-11.8582
Peta	-11.8585
▁purchases	-11.8598
▁Suppliers	-11.8603
▁ho	-11.861
Grad	-11.8612
alement	-11.8614
▁encourag	-11.8618
antly	-11.8623
▁ganz	-11.8629
▁egy	-11.8631
▁arbejde	-11.8631
Experienci	-11.8632
▁securely	-11.8636
▁independ	-11.8643
▁monte	-11.8645
Make	-11.8655
iot	-11.8655
capacidad	-11.8659
▁(5	-11.8677
▁bottom	-11.8682
les	-11.8686
▁intuition	-11.8691
60	-11.8694
bre	-11.8696
dez	-11.8701
▁Builder	-11.8702
▁Secur	-11.871
▁spann	-11.8717
mment	-11.8723
▁ecosystems	-11.8731
▁Administrator	-11.874
▁Scientists	-11.8747
val	-11.8749
▁ansvar	-11.875
mo	-11.8754
▁abr	-11.8764
$118,000	-11.8779
▁optimise	-11.8779
red	-11.8784
▁ger	-11.8787
sche	-11.8791
rar	-11.8795
king	-11.8795
▁prim	-11.8798
▁technically	-11.8804
▁Biologi	-11.8815
take	-11.8821
12,"	-11.8823
ack	-11.8828
▁ave	-11.8833
ial	-11.8834
_2	-11.8839
fight	-11.884
people	-11.884
mail	-11.8844
mple	-11.8847
▁Die	-11.8848
▁compos	-11.8857
▁buyer	-11.8858
point	-11.8862
9","	-11.8884
536,	-11.8886
SB	-11.8886
▁Ce	-11.8898
partner	-11.8903
sa	-11.8913
▁Bond	-11.8914
Forte	-11.8915
DB	-11.8919
cemos	-11.8921
tensive	-11.8921
ash	-11.8928
20:26:59.801	-11.893
▁ster	-11.8933
ieux	-11.8942
▁descriptions	-11.8953
▁Live	-11.896
range	-11.8967
▁Efficient	-11.8972
▁expriences	-11.8987
▁alum	-11.899
▁sv	-11.8995
▁rental	-11.8998
man	-11.8999
▁ansvara	-11.9
▁Visas	-11.9
▁Dan	-11.9001
uvre	-11.9017
integration	-11.9024
financial	-11.9029
▁Daten	-11.9047
Ogilvy	-11.9049
zed	-11.9051
ovat	-11.906
ieren	-11.9062
uration	-11.9062
regard	-11.9063
▁schemes	-11.9063
▁Super	-11.9064
ood	-11.9064
▁Integrations	-11.907
69	-11.9073
▁element	-11.9073
▁lutte	-11.9075
artist	-11.9077
uisi	-11.908
Learn	-11.9082
;-	-11.9087
gende	-11.9088
20:27:00.550	-11.9089
Management	-11.9103
developer	-11.9104
▁alg	-11.9106
flexible	-11.9112
▁aid	-11.9113
media	-11.9115
intgration	-11.9118
hez	-11.9121
must	-11.9121
billion	-11.9124
Dash	-11.9126
Excel	-11.9126
cket	-11.9127
projects	-11.9132
▁realiza	-11.9139
Fortune	-11.9141
▁dass	-11.9143
Competitive	-11.9144
▁(3	-11.9146
reliability	-11.9147
Perks	-11.9149
Hawthorne	-11.9149
Proactive	-11.915
Matrise	-11.9151
SaaS	-11.9151
▁cultures	-11.9151
Because	-11.9152
▁justifie	-11.9153
Conhecimento	-11.9153
Vielfalt	-11.9156
Familiar	-11.9157
sharp	-11.9157
Collaboration	-11.9159
Amsterdam	-11.916
Architect	-11.9162
suite	-11.9162
Singapore	-11.9162
Jenkins	-11.9162
Utiliz	-11.9163
Starship	-11.9164
Wellbeing	-11.9164
obsessed	-11.9164
Prior	-11.9164
extreme	-11.9164
trip	-11.9165
Foster	-11.9166
hauler	-11.9167
100	-11.917
▁dein	-11.9172
Erfahrung	-11.9173
iOS	-11.9173
arlo	-11.9175
Why	-11.9177
loop	-11.9177
31	-11.9181
▁engagera	-11.9183
threats	-11.9184
▁utbildning	-11.9184
Use	-11.9185
dealing	-11.9186
DAX	-11.9189
APIs	-11.919
ender	-11.9204
▁Actions	-11.9208
20:26:42.047	-11.9212
introduc	-11.9212
crit	-11.9218
ka	-11.9218
▁dit	-11.9218
release	-11.9219
▁my	-11.922
ravailler	-11.9224
20:26:43.216	-11.9224
▁Den	-11.923
wel	-11.9243
▁analys	-11.9259
▁choice	-11.9261
▁Standard	-11.9262
▁responsabilit	-11.9263
▁Headquarter	-11.9263
▁touchpoint	-11.9263
End	-11.9266
▁RFP	-11.9268
▁wh	-11.9268
▁publisher	-11.927
▁Asset	-11.9274
▁sous	-11.9276
▁filing	-11.9277
▁conflict	-11.9277
FP	-11.9282
▁ASM	-11.9288
▁aspect	-11.929
▁Vendor	-11.9302
▁letters	-11.9309
ds	-11.9314
player	-11.9316
▁Payment	-11.9317
Pass	-11.9317
▁achieved	-11.9318
Als	-11.9319
▁oprationnel	-11.9319
ISO	-11.9324
▁chemical	-11.9326
zen	-11.9328
▁investor	-11.9335
▁orchestrate	-11.9335
ave	-11.9335
▁CO	-11.9336
▁Par	-11.9336
istrict	-11.9339
▁sta	-11.9339
curit	-11.9343
500	-11.9345
▁timeline	-11.9345
▁Relevan	-11.9347
▁Influence	-11.9348
ecutive	-11.9349
▁bygga	-11.9351
HR	-11.9353
▁rollout	-11.9356
▁Advisor	-11.9357
▁valor	-11.9359
▁concurrent	-11.9359
▁lunch	-11.9359
▁prompt	-11.936
▁Order	-11.9363
▁Diversit	-11.9364
▁reception	-11.9369
Gurgaon	-11.9369
▁Mississippi	-11.9369
$289,460	-11.9369
Conocimiento	-11.9369
▁Dropbox	-11.9369
▁Illustrator	-11.9369
▁Portfolio	-11.9369
▁demeanor	-11.9369
▁husbandry	-11.9369
▁rsoudre	-11.9369
▁typologies	-11.9369
▁CEO	-11.9369
▁maneuver	-11.9369
▁Happy	-11.9369
▁Identitt	-11.9369
▁utredningar	-11.9369
▁Kanban	-11.9369
▁dlais	-11.9369
:$190,800$2	-11.9369
▁vaccin	-11.9369
▁Definition	-11.9369
▁schnell	-11.937
▁GDPR	-11.937
▁metallic	-11.937
▁anlisis	-11.937
degreeBenefits	-11.937
▁synthesiz	-11.937
▁zaman	-11.937
▁ultrasonic	-11.937
▁Dynatrace	-11.937
▁breakthrough	-11.937
▁prsence	-11.937
▁batch	-11.937
▁crisis	-11.937
▁HRIS	-11.937
▁Dutch	-11.937
▁Deutschland	-11.937
▁Personalization	-11.937
▁subsystems	-11.937
▁40,000	-11.9371
▁encryption	-11.9371
▁Strategist	-11.9371
▁nursing	-11.9372
▁road	-11.9372
▁Marketplace	-11.9372
fhrung	-11.9372
▁Aufgaben	-11.9372
▁capturing	-11.9372
▁rsolution	-11.9373
▁2011	-11.9373
▁rseaux	-11.9373
Vaccin	-11.9373
Starbase	-11.9373
▁outlook	-11.9373
▁pardon	-11.9373
▁hunting	-11.9373
▁Restaurant	-11.9374
▁troite	-11.9374
▁implantation	-11.9374
▁welche	-11.9374
▁PMO	-11.9374
▁ralisation	-11.9375
▁neurosurg	-11.9375
▁occupation	-11.9376
$17	-11.9376
▁reconhecid	-11.9377
Cisco	-11.9378
▁facilitation	-11.9378
▁salesforce	-11.9379
Privat	-11.9379
▁continuity	-11.938
▁dynamism	-11.9382
kontakt	-11.9382
▁Deploy	-11.9383
▁Interact	-11.9383
▁flera	-11.9383
▁fluency	-11.9383
▁Hungar	-11.9384
▁macOS	-11.9384
▁Sweden	-11.9384
▁Message	-11.9384
▁concurrently	-11.9384
▁wireframes	-11.9384
▁Arabic	-11.9384
▁breakdown	-11.9384
SC	-11.9385
▁arbeitest	-11.9387
▁quoting	-11.9387
▁juntos	-11.9387
▁Org	-11.9388
ions	-11.9388
▁Feature	-11.939
▁annat	-11.939
▁danalyse	-11.939
▁Hyp	-11.9391
▁navigation	-11.9391
HSA	-11.9391
▁robustness	-11.9391
ttractive	-11.9393
▁emot	-11.9396
▁mesure	-11.9396
▁USDI	-11.9396
0-1	-11.9399
▁pitches	-11.9399
▁playbooks	-11.94
▁whatever	-11.9402
▁maintainability	-11.9403
prachen	-11.9403
▁theatre	-11.9404
▁$25	-11.9404
▁MVVM	-11.9405
▁FMCG	-11.9405
▁Netsuite	-11.9406
▁PowerShell	-11.9406
▁Pricing	-11.9406
▁velocity	-11.9406
▁vikt	-11.9407
▁Adaptable	-11.9407
▁printers	-11.9408
▁Scurit	-11.941
▁bigger	-11.9411
renewable	-11.9411
▁foodora	-11.9411
▁mjligheter	-11.9412
▁za	-11.9413
▁alternate	-11.9414
▁screening	-11.9414
▁clinics	-11.9414
▁Train	-11.9418
▁bij	-11.942
Moreover	-11.9421
▁sol	-11.9422
▁diagnose	-11.9426
▁trained	-11.9427
hauffeur	-11.9427
▁PyTorch	-11.9427
▁Halmstad	-11.9427
▁journal	-11.9431
iven	-11.9433
▁quotes	-11.9433
▁bland	-11.9435
▁tough	-11.944
crafted	-11.9441
form	-11.9445
▁suggestion	-11.9445
▁atmosphre	-11.9447
Ex	-11.9449
▁focuse	-11.9451
/4	-11.9456
▁researching	-11.9456
▁satisfie	-11.9457
▁texture	-11.9457
▁sheets	-11.946
▁Programmer	-11.9463
▁Budapest	-11.9464
▁principals	-11.9464
ATF	-11.9464
▁caus	-11.9467
▁Deployments	-11.9468
▁262844	-11.9469
▁alle	-11.9469
▁thoroughly	-11.9473
▁responsabilits	-11.9477
▁solide	-11.9479
▁entirely	-11.9481
▁exige	-11.9485
▁tri	-11.9485
▁$14.	-11.9488
▁PF	-11.9488
▁Align	-11.9489
▁rea	-11.9492
▁SDLC	-11.9494
▁learnings	-11.9497
▁requiredF	-11.9498
▁TCP	-11.9499
erta	-11.9501
DH	-11.9504
▁Troubleshooting	-11.9505
▁rider	-11.9506
▁collaborators	-11.9507
▁263504	-11.951
AS	-11.9513
PR	-11.9514
▁methodical	-11.9517
▁Anticipate	-11.9517
ville	-11.9519
cd	-11.9527
▁hin	-11.9531
rfrence	-11.9531
▁utvecklas	-11.9537
▁drawing	-11.954
▁bude	-11.954
▁voluer	-11.954
▁oversees	-11.9551
Unit	-11.9555
52	-11.9555
use	-11.9555
▁climbing	-11.9556
▁selecting	-11.9557
▁graph	-11.9557
programm	-11.9558
▁organizaci	-11.9558
▁Erfahrung	-11.9558
▁vertical	-11.956
arel	-11.9567
▁rationale	-11.957
ti	-11.9571
Capacidad	-11.958
▁intermediar	-11.9586
▁theory	-11.9589
cala	-11.9594
▁locally	-11.9594
FSA	-11.9598
▁indem	-11.9599
tura	-11.9603
▁Scrum	-11.9604
▁elevat	-11.9606
kenntnisse	-11.961
▁cons	-11.9618
mall	-11.9623
rowd	-11.9625
▁setups	-11.9631
▁reli	-11.9632
▁empathetic	-11.9632
▁ste	-11.9633
▁Ideal	-11.9634
▁UAR	-11.9636
Us	-11.9638
design	-11.964
▁exhibit	-11.9643
▁projektering	-11.9646
▁Planung	-11.9648
++)	-11.965
▁diagnos	-11.9657
▁speaker	-11.9658
ull	-11.9664
like	-11.9666
1","	-11.967
▁cell	-11.967
▁Redmond	-11.9671
tter	-11.9673
▁Experienci	-11.9673
▁norm	-11.9675
▁orderly	-11.9679
▁automations	-11.9691
▁Sen	-11.9693
pass	-11.9695
Role	-11.9705
▁labs	-11.9708
▁sch	-11.9708
mer	-11.9715
▁approfondie	-11.9716
▁vets	-11.9721
▁enterprises	-11.9722
▁commerciales	-11.9725
20:26:47.500	-11.9727
franc	-11.9729
▁Sale	-11.9733
ud	-11.9734
550	-11.974
5,000	-11.9743
▁tape	-11.9747
▁Diplm	-11.9749
ziert	-11.9749
overs	-11.9753
▁subscriptions	-11.9753
▁yours	-11.9754
9-	-11.976
▁Se	-11.9761
Consult	-11.9761
▁Mich	-11.9761
ito	-11.9761
▁solicita	-11.9765
ditorial	-11.9767
IVIL	-11.9767
▁commu	-11.9773
▁participe	-11.9775
▁263315	-11.978
▁Infrastruktur	-11.9781
▁Directory	-11.9786
▁1:1	-11.9791
▁uit	-11.9795
▁Internship	-11.9799
ales	-11.98
▁2.	-11.98
cb	-11.9812
▁aggregat	-11.9819
Active	-11.9824
ku	-11.9826
ue	-11.9828
20:26:46.891	-11.983
clar	-11.9839
▁Handl	-11.985
▁striv	-11.9851
▁collaborati	-11.9851
nehmen	-11.9855
▁SW	-11.9858
20:26:47.905	-11.9865
ise	-11.987
▁Coun	-11.9873
▁princip	-11.9877
▁Qua	-11.9879
ende	-11.9879
▁Methodolog	-11.988
▁263715	-11.988
EN	-11.9882
crafting	-11.9889
cent	-11.9891
▁Container	-11.9896
20:26:53.084	-11.9899
▁erstell	-11.9902
▁dj	-11.9905
▁bu	-11.9907
▁vergleichbar	-11.9912
ient	-11.9916
▁Educate	-11.9917
800$2	-11.9922
▁fonction	-11.9928
▁activat	-11.9931
▁principal	-11.9945
early	-11.9947
▁wor	-11.9958
tas	-11.9958
inde	-11.9961
▁bygg	-11.9961
ien	-11.9961
4,19	-11.9965
▁263672	-11.9976
phones	-11.9982
Man	-11.9984
liche	-11.9987
positione	-11.9993
▁Adapt	-11.9997
▁externa	-12.0012
▁80	-12.0014
solutions	-12.0021
▁gas	-12.0032
▁visas	-12.0034
▁recherch	-12.0039
CG	-12.004
▁skillsA	-12.0042
mix	-12.0043
-1	-12.0045
commission	-12.0053
volution	-12.0054
lige	-12.0059
Works	-12.0059
▁dveloppements	-12.0062
▁displays	-12.0062
▁Class	-12.0066
▁invite	-12.0071
ants	-12.0078
▁meg	-12.008
Net	-12.0084
bo	-12.0102
bar	-12.0104
dos	-12.0109
excellent	-12.0113
)"	-12.0116
▁vid	-12.0119
gi	-12.013
▁263664	-12.0134
Service	-12.0153
RR	-12.0154
▁spa	-12.0157
▁Al	-12.0157
rprise	-12.0157
▁jo	-12.0158
Game	-12.016
▁blive	-12.0164
leadership	-12.0165
▁Di	-12.0166
Bonne	-12.0168
00,	-12.0175
▁Wirtschafts	-12.0175
▁gl	-12.0175
▁desk	-12.0182
▁Hos	-12.0187
eutschkenntnisse	-12.0187
Sc	-12.0189
ndpoint	-12.019
potential	-12.0192
paper	-12.0193
eb	-12.0194
▁Led	-12.0197
tence	-12.02
▁marka	-12.0201
▁42	-12.0204
▁dedica	-12.0205
▁fine	-12.021
aracters	-12.0212
eringar	-12.0212
▁Comp	-12.0214
FX	-12.0217
Development	-12.0222
nyc	-12.0229
med	-12.0231
▁season	-12.0234
▁qual	-12.0235
Cour	-12.0244
Bosch	-12.0244
How	-12.0244
Executive	-12.0245
herefore	-12.0246
▁pen	-12.0247
VR	-12.0247
▁Ana	-12.0248
title	-12.0254
safe	-12.0256
Kubernetes	-12.0258
Sofia	-12.0261
AR	-12.0262
foodpanda	-12.0262
▁Arbeits	-12.0263
traditional	-12.0264
ual	-12.0266
Social	-12.0268
Linux	-12.0269
equipped	-12.027
IaC	-12.027
proof	-12.0271
Windows	-12.0272
DevSecOps	-12.0273
precision	-12.0273
University	-12.0273
Mexico	-12.0273
Stockholm	-12.0273
Backend	-12.0274
behind	-12.0274
Modern	-12.0276
Essential	-12.0277
globally	-12.0278
determined	-12.0279
Possess	-12.0281
Analytical	-12.0282
online	-12.0286
Respond	-12.0287
Write	-12.0292
▁designer	-12.0293
Share	-12.0295
start	-12.0299
Improve	-12.0299
director	-12.0304
restrict	-12.0313
▁foundations	-12.0315
▁ska	-12.0317
deli	-12.032
ERP	-12.0326
Cash	-12.0328
▁gra	-12.033
Some	-12.0335
▁movements	-12.0335
▁stake	-12.0336
▁aktuelle	-12.0338
▁Fach	-12.0344
Som	-12.0348
oba	-12.0349
ven	-12.0351
▁menu	-12.0352
▁tele	-12.0354
▁wins	-12.0354
▁West	-12.0356
diteur	-12.0358
▁extension	-12.0367
▁potentiel	-12.0371
▁crane	-12.0371
aw	-12.0372
▁Accommodation	-12.0374
▁outcome	-12.0374
▁premire	-12.0374
▁error	-12.0374
▁besoin	-12.0374
▁tcnica	-12.0375
▁microservice	-12.0375
▁artistique	-12.0377
▁convert	-12.0378
▁magazine	-12.0379
▁fabric	-12.0385
top	-12.0391
Veterinar	-12.0391
clement	-12.0391
▁permit	-12.0393
dd	-12.0393
▁tested	-12.0394
▁item	-12.0394
entas	-12.0396
▁Meta	-12.0398
boarding	-12.04
▁Ticket	-12.0409
▁Under	-12.0409
▁Deployment	-12.0415
▁Dein	-12.0417
ist	-12.0417
▁conferenc	-12.0422
QA	-12.0424
▁vente	-12.0428
▁demo	-12.0431
▁salari	-12.0435
▁garant	-12.0437
bt	-12.0437
▁komplex	-12.044
▁conference	-12.0443
mak	-12.0447
▁ko	-12.0447
ddress	-12.0449
▁ag	-12.0451
empo	-12.0455
▁acclaim	-12.0458
▁matrix	-12.0459
▁distribute	-12.0461
▁Sunday	-12.0462
20:26:55.762	-12.0463
▁flexibilit	-12.0468
▁Hub	-12.0471
Masters	-12.0472
▁efood	-12.0475
▁clos	-12.0476
▁manages	-12.0478
ager	-12.0478
▁rseau	-12.0479
▁sz	-12.0479
assisted	-12.0479
LikeABosch	-12.0481
▁Artifactory	-12.0481
▁collaboratrices	-12.0481
▁invoicing	-12.0481
▁kubernetes	-12.0481
▁Maryland	-12.0481
▁ZoomInfo	-12.0481
▁beautiful	-12.0481
▁estrategia	-12.0481
▁fashion	-12.0481
▁semiconductor	-12.0481
▁universitaire	-12.0481
▁Chinese	-12.0481
▁risques	-12.0481
▁teknikomrden	-12.0481
▁Availability	-12.0481
▁Cypress	-12.0481
▁conjun	-12.0481
▁voluntary	-12.0481
▁Street	-12.0481
▁copywriting	-12.0481
▁Gateway	-12.0481
▁Publishing	-12.0481
▁majeur	-12.0481
▁fachliche	-12.0481
▁footprint	-12.0481
▁5:30	-12.0481
▁durability	-12.0481
▁anomalies	-12.0481
▁Governance	-12.0481
▁tenemos	-12.0481
▁Lsungen	-12.0481
▁nicht	-12.0481
▁Limited	-12.0481
Scripting	-12.0481
Die	-12.0481
▁Ruby	-12.0481
▁Matter	-12.0482
▁SSL	-12.0482
▁Click	-12.0482
▁Productivity	-12.0482
▁replication	-12.0482
▁dabei	-12.0482
▁booth	-12.0482
▁turnover	-12.0482
▁rendering	-12.0482
▁faites	-12.0482
▁hospitality	-12.0482
▁MVC	-12.0482
▁privilgi	-12.0482
▁SERVICE	-12.0483
▁produkter	-12.0483
▁rgne	-12.0483
▁Heavy	-12.0484
▁cooperative	-12.0484
▁fungerar	-12.0485
▁profesional	-12.0486
▁transit	-12.0486
▁Flutter	-12.0486
▁mehr	-12.0486
EAR	-12.0487
▁illustration	-12.0488
Solna	-12.0488
▁261653	-12.0488
▁Procedures	-12.0488
▁Musketeers	-12.0488
▁Attendant	-12.0488
▁soft	-12.0488
▁typical	-12.0489
reed	-12.049
▁lieu	-12.049
ences	-12.0491
▁vol	-12.0491
▁Fight	-12.0492
▁merchandise	-12.0492
▁upskill	-12.0495
▁Making	-12.0496
▁TFT	-12.0496
▁Odoo	-12.0496
▁Splunk	-12.0497
▁Extreme	-12.0497
▁Diligent	-12.0497
▁momento	-12.0497
▁confidentiality	-12.0497
▁Snowflake	-12.0497
▁cafe	-12.0497
▁courant	-12.0497
▁Pathology	-12.0498
▁RFIs	-12.0498
▁scoping	-12.0499
▁though	-12.0499
▁Alliance	-12.05
▁administrators	-12.05
▁refunds	-12.05
▁klanten	-12.0501
Index	-12.0502
▁tariff	-12.0502
▁Forecast	-12.0502
▁competition	-12.0502
▁verantwortlich	-12.0503
▁branches	-12.0503
chliee	-12.0505
▁jumping	-12.0505
▁Element	-12.0506
▁stretching	-12.0506
▁cration	-12.0506
▁NJ	-12.0507
▁joueurs	-12.0508
▁erste	-12.0509
des	-12.0509
▁Organizational	-12.0509
reat	-12.0511
▁Way	-12.0511
▁seniority	-12.0511
▁marca	-12.0512
▁Quick	-12.0512
▁kter	-12.0513
lways	-12.0513
▁rsultats	-12.0513
ens	-12.0514
Universal	-12.0518
▁263189	-12.0518
▁Verify	-12.0518
▁advocat	-12.0518
▁Diagnose	-12.0519
▁Intermediate	-12.0521
▁productively	-12.0522
▁261194	-12.0524
▁counterparts	-12.0525
▁Gr	-12.0528
▁logos	-12.0528
4.4	-12.0529
▁curating	-12.053
▁permission	-12.0531
lateforme	-12.0534
▁identifie	-12.0536
▁changements	-12.0536
▁$145,000	-12.0537
▁milj	-12.0538
Determine	-12.0538
▁Billing	-12.0539
▁Detailer	-12.054
▁Map	-12.0541
▁saving	-12.0542
ov	-12.0544
▁GMP	-12.0545
▁conhecimento	-12.0549
▁Holidays	-12.0552
▁Forecasting	-12.0552
knit	-12.0554
▁harnessing	-12.0556
▁263348	-12.0557
hoz	-12.0559
astest	-12.056
▁Navigat	-12.0562
IHR	-12.0563
▁priorits	-12.0565
▁refinements	-12.0567
▁tightly	-12.0567
▁Sign	-12.0568
▁externes	-12.057
▁fixes	-12.0571
▁alone	-12.0571
▁relationer	-12.0572
▁industrin	-12.0575
bi	-12.0576
Begin	-12.0577
▁migrations	-12.0577
▁262637	-12.0579
▁processer	-12.058
etting	-12.0582
Identifier	-12.0583
▁consultations	-12.0583
▁dfinis	-12.0586
▁Das	-12.0587
▁Observabilit	-12.0589
Suiv	-12.059
▁MES	-12.0591
▁artistiques	-12.0591
▁FTC	-12.0595
▁Read	-12.06
▁pop	-12.0604
▁landing	-12.0606
▁seller	-12.0606
▁recordings	-12.0606
ition	-12.0606
▁263631	-12.0607
ru	-12.0608
IDs	-12.0609
IG	-12.0611
▁Accountable	-12.0613
▁motivat	-12.0614
▁Banking	-12.0616
▁miles	-12.0617
▁Station	-12.0618
▁vl	-12.0619
ential	-12.0619
▁Car	-12.062
▁Certificate	-12.0622
▁Med	-12.063
ri	-12.0633
▁steer	-12.0634
ow	-12.0635
▁Cord	-12.0637
▁associat	-12.0639
365	-12.0639
▁OSHA	-12.0644
4","	-12.0645
▁derive	-12.0645
▁comfortably	-12.065
▁ro	-12.0652
▁outlin	-12.0652
▁suiv	-12.0653
▁Dasher	-12.0659
▁tires	-12.0663
▁263427	-12.0669
▁Ausbildung	-12.067
▁NAS	-12.0673
ection	-12.0675
gn	-12.0675
oca	-12.0677
rtificial	-12.0682
▁Vending	-12.0688
▁ops	-12.0689
▁Dev	-12.0689
▁Main	-12.0692
▁Contribut	-12.0693
cours	-12.0694
vari	-12.0701
air	-12.0705
▁263671	-12.0711
▁SPM	-12.0714
▁Amsterdam	-12.072
▁sljar	-12.0728
ges	-12.0728
▁searching	-12.0729
▁caring	-12.0733
▁Interfaces	-12.0737
▁body	-12.0737
▁maps	-12.074
▁150	-12.0742
▁vor	-12.0751
son	-12.0757
auler	-12.0766
ntra	-12.0769
▁Dublin	-12.0769
700	-12.0769
▁externe	-12.0779
▁alike	-12.0785
stmglich	-12.0787
▁ego	-12.0787
aupr	-12.079
▁Fin	-12.0799
▁definite	-12.0805
chten	-12.081
200	-12.0814
ehr	-12.0815
▁patrol	-12.0818
TP	-12.0823
▁energi	-12.0824
▁reserv	-12.0826
▁nap	-12.0826
▁...)	-12.0829
itt	-12.083
▁engagerad	-12.0835
▁books	-12.0842
▁Stars	-12.0843
▁35	-12.0846
pick	-12.0855
CO	-12.086
▁meaning	-12.086
▁gng	-12.0861
lit	-12.0865
ional	-12.0867
cated	-12.0868
▁competitors	-12.0868
new	-12.0881
▁ranking	-12.0885
▁3:	-12.0887
▁allocations	-12.0889
▁uphold	-12.0897
12630885	-12.0898
▁erfarn	-12.0902
ight	-12.0904
imez	-12.0906
▁attack	-12.091
8-	-12.0911
▁Bi	-12.0918
erar	-12.092
▁atout	-12.0927
▁Programa	-12.0931
▁neces	-12.0936
▁365	-12.0936
mento	-12.0937
▁He	-12.0938
erfect	-12.0941
Effi	-12.0944
schen	-12.0947
loves	-12.0947
rative	-12.0951
▁cap	-12.0953
▁wie	-12.0964
cable	-12.0964
▁visualize	-12.0967
irb	-12.097
▁263314	-12.0972
▁263713	-12.0975
▁consultant	-12.0976
SA	-12.0976
▁conformit	-12.0984
▁263433	-12.0986
loton	-12.0998
prvn	-12.1
▁Unter	-12.1002
▁analyst	-12.1003
▁cook	-12.1005
bove	-12.1006
▁Establishe	-12.1023
▁generati	-12.1033
▁Tak	-12.1038
▁263432	-12.1048
andel	-12.1052
▁tro	-12.1075
▁IS	-12.108
▁rain	-12.1086
▁aplica	-12.1093
evolving	-12.11
▁bound	-12.1103
coute	-12.1107
▁$5	-12.1109
nden	-12.1109
uig	-12.1116
▁algorithm	-12.1119
▁263351	-12.1121
▁JS	-12.1121
▁certificates	-12.1123
▁addressed	-12.1125
laboration	-12.1137
▁SQLs	-12.1141
▁adqu	-12.1142
/7440000490	-12.1163
▁andra	-12.1164
▁Suites	-12.1165
▁Purchasing	-12.1167
▁moderate	-12.117
mission	-12.1192
ish	-12.1196
ence	-12.121
.50/	-12.1214
▁gran	-12.1218
Expert	-12.1223
SPM	-12.1223
70,"	-12.1224
▁partial	-12.1225
▁Ein	-12.1232
▁tun	-12.1232
▁natur	-12.1233
Collaborat	-12.1238
▁round	-12.1244
sys	-12.1245
▁Any	-12.1249
ST	-12.1255
ID	-12.1259
▁compl	-12.1265
▁instrumenta	-12.1268
▁haut	-12.1279
hape	-12.1294
▁promo	-12.1299
▁Europes	-12.13
group	-12.1303
▁sciences	-12.131
▁$3	-12.132
xposure	-12.1325
▁263663	-12.1336
▁confi	-12.1347
▁nu	-12.1347
ndern	-12.1349
▁Um	-12.1349
Wars	-12.135
ligt	-12.1356
▁gagn	-12.1357
▁stt	-12.1357
▁lists	-12.1371
▁GP	-12.1373
tic	-12.1374
▁01	-12.1386
mplify	-12.1389
fection	-12.1398
▁inclu	-12.14
don	-12.1401
▁utilis	-12.1402
▁skal	-12.1407
mplified	-12.141
▁Prioritiz	-12.1411
▁Austin	-12.1411
(64	-12.1412
▁Z	-12.1413
83	-12.1413
20:26:52.602	-12.1414
pelo	-12.1415
frame	-12.1426
▁Uni	-12.143
nch	-12.1436
anctions	-12.144
▁Ti	-12.1442
▁individuell	-12.1442
▁rol	-12.1443
Track	-12.1449
student	-12.1452
▁Mod	-12.1453
▁besiktning	-12.1453
stock	-12.1454
nces	-12.1456
VD	-12.1462
finance	-12.1466
hardware	-12.1467
▁Curat	-12.1473
nten	-12.1475
commercial	-12.1477
revenue	-12.148
▁mu	-12.148
euille	-12.1482
LIA	-12.1482
Draft	-12.1496
With	-12.1496
tionary	-12.1501
Kontakt	-12.1505
technology	-12.1506
Skills	-12.1507
Promote	-12.151
objectif	-12.1512
JavaScript	-12.1513
Community	-12.1513
Degree	-12.1516
rat	-12.1516
visibility	-12.1518
Produce	-12.1518
▁eliminat	-12.1518
Retail	-12.1519
Meet	-12.1519
Interpret	-12.152
Ausbildung	-12.152
Infrastructure	-12.152
ADESA	-12.1521
Cross	-12.1521
NDE	-12.1522
Regulatory	-12.1522
Opportunities	-12.1522
Seattle	-12.1523
Chicago	-12.1523
Nashville	-12.1523
Berlin	-12.1523
logiciels	-12.1523
Zendesk	-12.1523
Premise	-12.1523
Influencer	-12.1523
Production	-12.1523
Cortex	-12.1524
MLOps	-12.1524
vo	-12.1524
Cultivate	-12.1527
tener	-12.1527
▁block	-12.1528
HA	-12.1528
Report	-12.1534
Bring	-12.1543
▁liste	-12.1544
ating	-12.1548
xtended	-12.1549
CAD	-12.1552
speaking	-12.1557
Commercial	-12.1559
BA	-12.1561
▁comprehen	-12.157
-8	-12.1587
ierung	-12.159
▁holidaysFu	-12.1591
und	-12.1598
synchronous	-12.1602
nel	-12.1607
Check	-12.1607
foundry	-12.1607
chieve	-12.1608
▁window	-12.1613
▁pursuit	-12.1618
▁Advertiser	-12.1621
▁inspir	-12.1621
▁pattern	-12.1622
▁notification	-12.1624
▁involv	-12.1624
▁submission	-12.1625
▁survey	-12.1625
▁definiti	-12.1629
▁screen	-12.1631
▁expectation	-12.1635
▁krv	-12.1636
▁upgrade	-12.1639
▁claim	-12.1646
▁beat	-12.1651
▁favoris	-12.1655
sk	-12.1663
emos	-12.1664
▁modify	-12.1665
ische	-12.1665
▁gener	-12.1665
▁opinion	-12.1666
▁listener	-12.1667
beat	-12.1669
▁updat	-12.1671
▁articulat	-12.1672
▁supervisor	-12.1672
▁consultation	-12.1673
▁pode	-12.1673
▁minute	-12.1674
held	-12.1674
▁migration	-12.1674
▁Profit	-12.1678
▁Line	-12.1685
▁students	-12.1687
ierst	-12.1697
▁diffrent	-12.1698
▁Pod	-12.1705
▁pres	-12.1713
▁untersttz	-12.1714
bu	-12.1714
Os	-12.1717
assurer	-12.1717
Bas	-12.1718
▁konsult	-12.1722
ligible	-12.1725
▁olmak	-12.1727
▁contractor	-12.1727
▁droule	-12.1728
cortex	-12.173
▁modular	-12.173
▁Markt	-12.173
▁childbirth	-12.173
▁Efficiency	-12.1731
▁samhlle	-12.1731
Matilda	-12.1731
▁Benelux	-12.1731
▁CODEX	-12.1731
▁Furniture	-12.1731
▁HVAC	-12.1731
▁SHIFT	-12.1731
▁Sourcing	-12.1731
▁convivial	-12.1731
▁marknaden	-12.1731
▁mercadera	-12.1731
▁meritocratic	-12.1731
▁nosotros	-12.1731
▁prsentiel	-12.1731
▁schaffen	-12.1731
▁ultrasound	-12.1731
▁uttryck	-12.1731
Krantz	-12.1731
▁Aerospace	-12.1731
▁Arbeitsmodelle	-12.1731
▁Chatbot	-12.1731
▁jrnvgsprojekt	-12.1731
diskussione	-12.1731
▁shuttle	-12.1731
▁offentlig	-12.1731
▁relacionadas	-12.1731
▁Vorteil	-12.1731
▁kernel	-12.1731
▁Layout	-12.1731
▁postmortem	-12.1731
▁rvolutionn	-12.1731
▁NFPA	-12.1731
▁tienda	-12.1731
▁oscilloscopes	-12.1731
▁Helm	-12.1731
▁Threads	-12.1731
▁nemli	-12.1731
▁subordinate	-12.1731
▁Incident	-12.1731
issement	-12.1731
▁limitations	-12.1731
▁Perforce	-12.1731
▁5-10	-12.1731
▁frstudie	-12.1731
▁dploiement	-12.1731
▁Strken	-12.1731
▁GOP	-12.1731
▁personalizado	-12.1731
▁Defence	-12.1731
tudium	-12.1731
▁Vsters	-12.1732
▁BEST	-12.1732
▁soutien	-12.1732
▁nyfiken	-12.1732
▁Capital	-12.1732
▁omni	-12.1732
▁Flink	-12.1732
▁PPE	-12.1732
▁bureau	-12.1732
▁clarif	-12.1733
▁Dveloppeur	-12.1733
▁Brazilian	-12.1733
Obtain	-12.1733
▁absence	-12.1733
▁jobbet	-12.1733
▁maturity	-12.1733
▁Zeit	-12.1734
▁Sanctions	-12.1734
▁CTO	-12.1734
▁manera	-12.1735
▁trygg	-12.1735
▁idag	-12.1737
▁implementacin	-12.1737
▁coheren	-12.1737
▁inherent	-12.1737
▁Direction	-12.1739
▁avanado	-12.1739
▁Projeto	-12.1739
▁Vouchers	-12.1739
▁Navigator	-12.174
▁$210,000	-12.174
YR	-12.1741
▁detta	-12.1741
▁steel	-12.1741
Fulfillment	-12.1742
▁zorg	-12.1743
▁photography	-12.1743
▁statu	-12.1743
▁whiteboards	-12.1744
intermediate	-12.1744
▁Budget	-12.1745
▁Harms	-12.1746
▁Santa	-12.1746
▁$80,000	-12.1746
▁workstation	-12.1747
▁spam	-12.1747
▁zijn	-12.1748
▁pixel	-12.1748
▁retrieval	-12.1749
▁Bazel	-12.1749
▁Lambda	-12.1749
▁GitLab	-12.1749
▁Postman	-12.1749
▁mercado	-12.1749
▁personnes	-12.1749
▁NLP	-12.1749
▁eCommerce	-12.175
▁Submit	-12.175
examen	-12.175
▁extract	-12.175
▁nov	-12.175
Web	-12.1751
▁incubation	-12.1751
▁ramp	-12.1752
▁integrators	-12.1752
▁bonding	-12.1752
▁objetivos	-12.1753
▁Researcher	-12.1754
▁Creation	-12.1754
▁motivational	-12.1755
▁ingls	-12.1755
▁acclaimed	-12.1756
arantir	-12.1756
.""""	-12.1757
▁Effects	-12.1757
▁VPC	-12.1757
DSS	-12.1758
▁diagrams	-12.176
▁Articulate	-12.176
▁erbjudande	-12.1761
▁Belt	-12.1763
▁Bac	-12.1763
▁adress	-12.1763
▁admin	-12.1766
▁podcasting	-12.1768
Post	-12.1768
▁analyzers	-12.1768
arching	-12.1769
Ser	-12.1769
▁capa	-12.1771
▁fieldwork	-12.1772
▁producer	-12.1772
▁261587	-12.1773
,"	-12.1774
▁$70,000	-12.1775
▁ACCOUNT	-12.1776
▁Foundations	-12.1778
▁258755	-12.178
▁informa	-12.1781
1/744000048	-12.1784
3,000	-12.1786
▁mark	-12.1787
kert	-12.179
ivil	-12.179
▁venues	-12.1792
▁360	-12.1793
▁RH	-12.1795
10+	-12.1795
▁vis	-12.1796
▁conclusions	-12.1796
▁trips	-12.1796
▁261906	-12.1798
▁263157	-12.1801
especial	-12.1803
▁aesthetic	-12.1803
▁Blue	-12.1804
▁roof	-12.1804
▁ledarskap	-12.1804
▁UAE	-12.1805
▁funcional	-12.1806
▁Redshift	-12.1806
▁EQ	-12.1806
▁possibility	-12.1807
artner	-12.1807
conditioning	-12.1808
▁Durch	-12.1809
discipline	-12.181
▁Subsidy	-12.181
▁objections	-12.1811
▁consoles	-12.1812
▁plataformas	-12.1812
▁interventions	-12.1813
▁moteurs	-12.1813
▁fail	-12.1813
▁$17	-12.1815
▁EDR	-12.1816
▁rigor	-12.1817
20:26:41.136	-12.1817
WH	-12.1818
▁pentests	-12.1818
ITY	-12.1818
cc	-12.1819
▁Commu	-12.1823
▁Teamwork	-12.1824
▁Mensch	-12.1825
▁262683	-12.1826
emente	-12.1826
▁briefings	-12.1827
▁262636	-12.1829
▁Net	-12.1829
▁python	-12.1832
▁Major	-12.1832
▁Mindset	-12.1833
▁CDI	-12.1834
eurs	-12.1834
▁transverse	-12.1835
▁rejection	-12.1836
▁$100	-12.1836
onic	-12.1838
▁Hall	-12.1839
▁FDA	-12.1841
▁Advertisers	-12.1841
▁catering	-12.1842
▁UL	-12.1843
▁Activation	-12.1843
▁Contact	-12.1844
▁photos	-12.1844
▁supportability	-12.1845
▁Intgre	-12.1846
▁Accelerat	-12.1848
▁notifications	-12.1849
▁MLR	-12.185
car	-12.1855
▁batter	-12.1857
▁IN	-12.1857
Demonstra	-12.1858
▁generator	-12.186
▁supervisors	-12.1861
▁Barcelona	-12.1862
endo	-12.1863
▁emergent	-12.1868
▁quil	-12.1871
low	-12.1871
▁choices	-12.1871
▁os	-12.1872
▁trackers	-12.1874
▁partage	-12.1875
▁ni	-12.1881
▁263349	-12.1885
▁rideshar	-12.1885
kommende	-12.1886
▁substitutions	-12.1886
▁kunne	-12.1887
▁Safe	-12.1888
▁neg	-12.1888
▁Atlanta	-12.189
▁Comptences	-12.189
'?	-12.1899
▁commerci	-12.1899
spiel	-12.1901
▁pickups	-12.1901
structive	-12.1902
React	-12.1904
▁tw	-12.1905
▁deployed	-12.1909
▁websites	-12.1913
NTS	-12.1913
▁Loan	-12.1914
▁delegate	-12.1917
LE	-12.1918
▁Competence	-12.1918
▁ph	-12.1921
cashi	-12.1925
▁SOPs	-12.1925
▁ren	-12.1937
▁Independent	-12.1938
▁accomplished	-12.1939
▁stations	-12.194
▁entretiens	-12.1945
▁Age	-12.1945
engdelius	-12.195
Fr	-12.1959
:$21	-12.1961
▁prtica	-12.1965
▁comptes	-12.1965
yrs	-12.1966
▁hrlig	-12.1966
▁logs	-12.1967
▁gre	-12.197
▁262982	-12.1971
▁Special	-12.1972
entity	-12.1978
cole	-12.198
fin	-12.1981
▁town	-12.1982
▁mthode	-12.1982
▁262983	-12.1988
LM	-12.1989
▁263316	-12.199
▁EE	-12.199
▁weitere	-12.1991
▁Statu	-12.1991
▁Mac	-12.1992
rna	-12.201
▁Multi	-12.202
regional	-12.2032
▁Desir	-12.2046
▁Plane	-12.2049
▁sorg	-12.206
▁snar	-12.2062
▁dust	-12.2066
▁communique	-12.2066
ple	-12.2074
▁diteur	-12.2079
▁frame	-12.2083
172	-12.2084
▁262152	-12.2086
▁Produkt	-12.2087
▁uptime	-12.2097
▁Africans	-12.21
▁$110,000	-12.21
mas	-12.2101
▁Air	-12.2112
odb	-12.2113
pproximate	-12.2119
modal	-12.2124
▁tv	-12.2127
nkel	-12.2128
▁advocates	-12.213
ets	-12.213
▁demos	-12.2131
occasion	-12.2139
mit	-12.214
▁eco	-12.214
Negotiate	-12.2146
▁becom	-12.2146
▁professionell	-12.2149
▁organiser	-12.2156
▁relevante	-12.216
amar	-12.216
bc	-12.216
BSc	-12.2165
▁identifi	-12.2166
▁263676	-12.2167
idos	-12.217
49,"	-12.2171
▁awa	-12.2173
aa	-12.2177
**	-12.2183
▁file	-12.2185
Relevan	-12.2188
7,100	-12.2188
▁Pharma	-12.219
▁useful	-12.2191
▁interes	-12.2193
▁kul	-12.2199
intensive	-12.2204
SE	-12.2205
▁string	-12.2218
most	-12.2219
▁6-	-12.222
sterreich	-12.2236
▁comprise	-12.2237
employment	-12.2239
/5	-12.2245
▁bas	-12.2247
▁air	-12.225
Shar	-12.2253
PS	-12.226
play	-12.2262
▁valider	-12.2267
▁Ile	-12.2268
▁urgen	-12.2272
▁5/1	-12.228
▁reas	-12.2283
▁tid	-12.2286
20:26:48.262	-12.2288
netary	-12.2292
▁263661	-12.2298
ntrepreneurial	-12.2303
▁Sma	-12.2303
▁arts	-12.2304
▁he	-12.2304
brea	-12.2305
Form	-12.2306
▁reductions	-12.231
ran	-12.2338
▁containeriz	-12.2346
Missions	-12.2348
vernight	-12.2371
▁visits	-12.2371
▁employ	-12.2376
▁alternance	-12.2377
wissenschaften	-12.2381
ndy	-12.2381
▁reside	-12.2384
shopping	-12.2393
Bo	-12.24
5","	-12.2401
▁ke	-12.2406
▁Il	-12.2412
View	-12.2414
90,000	-12.2419
forget	-12.2421
ap	-12.2429
oordonner	-12.2431
▁measurements	-12.2434
▁Designing	-12.2435
19,000	-12.2436
▁occasion	-12.2443
cultural	-12.2446
abba	-12.2446
nit	-12.2457
pped	-12.2463
pack	-12.2464
▁prise	-12.2466
▁preferable	-12.2466
▁comunica	-12.2467
tal	-12.2471
▁FO	-12.2475
besiktning	-12.2478
remos	-12.2486
▁seat	-12.2492
comes	-12.2502
▁Registr	-12.2507
▁bo	-12.2511
THI	-12.2516
▁travaill	-12.2521
▁acquisitions	-12.2535
rbetet	-12.2541
▁bases	-12.2544
▁Script	-12.2546
IM	-12.2549
▁constante	-12.2552
▁typ	-12.2553
▁ethics	-12.2574
Programm	-12.2574
▁complementar	-12.2578
kontroll	-12.2582
8:00	-12.2596
arbejder	-12.2604
Blender	-12.2604
50,"	-12.2609
▁ABA	-12.2609
oral	-12.2616
▁asegurar	-12.2616
int	-12.262
ys	-12.2621
Analyse	-12.2624
irbag	-12.2631
▁Su	-12.2632
▁capitaliz	-12.2637
activit	-12.2637
Divers	-12.2649
▁263662	-12.2658
rnehmen	-12.2663
▁crit	-12.2669
Go	-12.267
Manag	-12.2672
▁approfondi	-12.2674
▁compris	-12.2678
rial	-12.2681
zusammenarbeit	-12.269
ast	-12.2692
▁nm	-12.2696
▁limit	-12.2697
▁Practic	-12.2701
▁behv	-12.2701
▁construct	-12.2703
rweise	-12.2711
ewerbungsprozess	-12.2714
509	-12.2716
29,"	-12.2722
▁apprcie	-12.2735
sista	-12.2739
set	-12.2741
relational	-12.2744
▁tablet	-12.2749
ESS	-12.2752
▁Machines	-12.2753
pu	-12.276
▁fra	-12.276
traction	-12.2762
▁pla	-12.2763
ha	-12.2773
▁ple	-12.2776
▁initiate	-12.2779
egal	-12.2781
Preparing	-12.2783
▁disa	-12.2783
load	-12.2785
arbeit	-12.2786
pon	-12.2791
rroga	-12.2798
ligen	-12.2802
ahar	-12.2803
Interface	-12.2804
associate	-12.2805
otice	-12.2805
works	-12.281
ling	-12.281
▁carrie	-12.2814
478	-12.2818
target	-12.2821
entreprise	-12.2823
▁$170,000	-12.2826
Ground	-12.2831
▁mile	-12.2843
MQ	-12.2849
scientist	-12.2849
▁val	-12.2852
▁socializ	-12.2853
elight	-12.2858
Centric	-12.2859
premise	-12.2859
▁Marken	-12.2862
sam	-12.2862
matter	-12.2864
▁strategische	-12.2866
adas	-12.2866
Troubleshoot	-12.2881
▁vn	-12.2885
▁Lea	-12.2886
coordinator	-12.2887
BI	-12.2894
Transparen	-12.2899
tional	-12.2899
distributed	-12.29
reporting	-12.2902
excellence	-12.2904
Platform	-12.2906
▁Serv	-12.2912
▁efficac	-12.2916
organized	-12.292
20,"	-12.2921
database	-12.2925
Connaissance	-12.2926
print	-12.2927
Taichung	-12.2928
Safety	-12.2929
table	-12.2929
Liaise	-12.293
Main	-12.2931
retail	-12.2932
▁advanc	-12.2932
Effective	-12.2934
Persnlichkeit	-12.2936
HTTP	-12.2937
More	-12.2939
junior	-12.294
escalate	-12.2942
Wer	-12.2943
Attend	-12.2945
Nice	-12.2946
Evaluate	-12.2946
Vehicle	-12.2946
Fach	-12.2947
publishe	-12.2947
Oracle	-12.2948
Anticipate	-12.2948
French	-12.2948
SOPs	-12.2948
Studio	-12.2949
Terraform	-12.2949
Prometheus	-12.295
latency	-12.295
OSHA	-12.295
Sunnyvale	-12.295
EMEA	-12.295
college	-12.295
SLAs	-12.2951
Onboarding	-12.2951
Implementation	-12.2951
Malm	-12.2951
Documentation	-12.2952
REST	-12.2952
statement	-12.2952
efficiencies	-12.2952
Store	-12.2953
artistic	-12.2954
coats	-12.2954
▁leda	-12.2955
GTM	-12.2955
sensitiv	-12.2955
Performance	-12.2956
Tools	-12.2956
upsell	-12.2957
▁dimension	-12.2958
Code	-12.2959
Erfahrungen	-12.296
Apply	-12.296
guest	-12.296
▁fournis	-12.2961
event	-12.2963
ancement	-12.2971
▁Kommunikation	-12.2972
free	-12.2972
▁elabora	-12.2973
May	-12.2974
gestin	-12.2975
Fri	-12.2983
volves	-12.2984
builder	-12.2987
english	-12.2988
nable	-12.2989
aware	-12.2994
ounty	-12.3
sector	-12.3
sljar	-12.3001
issue	-12.3003
SAP	-12.3011
▁End	-12.3014
▁$108,000	-12.3021
▁Particip	-12.3026
▁ga	-12.3027
▁malfunction	-12.3027
▁customization	-12.3032
▁22	-12.3032
Can	-12.304
▁improves	-12.304
Ingnieur	-12.3044
▁cards	-12.3045
▁capacidad	-12.3049
univers	-12.3051
▁Surgeon	-12.3051
Par	-12.3051
▁sheet	-12.3052
▁calculation	-12.3052
▁agreement	-12.3053
tasking	-12.3053
▁schema	-12.3054
▁Resource	-12.3055
▁bridg	-12.3058
GA	-12.3058
maker	-12.306
ering	-12.306
Based	-12.306
▁participant	-12.3061
▁Kitchen	-12.3066
enomen	-12.3067
▁refinement	-12.3067
▁squad	-12.3068
▁offsite	-12.307
▁embedding	-12.3071
/7440000487	-12.3075
▁Organisation	-12.3078
▁conseil	-12.3083
cost	-12.3085
▁consid	-12.3087
▁rs	-12.3088
ger	-12.309
▁Month	-12.309
▁pertinent	-12.3094
▁hjlp	-12.3095
▁variable	-12.3095
▁Enthusias	-12.3096
▁cultura	-12.3097
▁Standort	-12.3099
CT	-12.3104
bas	-12.3104
▁gransk	-12.3106
▁disab	-12.3109
▁provision	-12.3118
atory	-12.3118
lement	-12.3124
▁optim	-12.3128
▁cliente	-12.3129
▁Expect	-12.3137
burg	-12.3138
▁equi	-12.3142
▁waar	-12.3146
▁Flex	-12.3148
▁beho	-12.3148
0.00	-12.3148
Marketing	-12.3148
KO	-12.3149
▁mchte	-12.3149
Propose	-12.315
rmci	-12.3152
▁middle	-12.3153
▁klant	-12.3154
spoke	-12.3156
Realiza	-12.3156
wicklung	-12.3157
▁intelligen	-12.3157
activator	-12.3158
teborg	-12.3159
▁Japan	-12.3159
▁Ansprechpartner	-12.3159
▁Cucumber	-12.3159
▁GmbH	-12.3159
▁HIPAA	-12.3159
▁Mlardalen	-12.3159
▁Nastran	-12.3159
▁Netzwerk	-12.3159
▁Premiere	-12.3159
▁TikTok	-12.3159
▁Umsetzung	-12.3159
▁commodities	-12.3159
▁conocimiento	-12.3159
▁frekomma	-12.3159
▁histology	-12.3159
▁imprensa	-12.3159
▁internacional	-12.3159
▁manuteno	-12.3159
▁mondiale	-12.3159
▁pharmaceutical	-12.3159
▁templating	-12.3159
▁territories	-12.3159
▁tillvxt	-12.3159
▁Kaizen	-12.3159
▁succinct	-12.3159
jhrige	-12.3159
▁Norrkping	-12.3159
▁Sketch	-12.3159
▁punctual	-12.3159
▁subsidy	-12.3159
▁uppfyll	-12.3159
:$112,000$	-12.3159
▁cyberattacks	-12.3159
▁fundierte	-12.3159
▁resellers	-12.3159
▁triaging	-12.3159
▁Cyberscurit	-12.3159
▁Outreach	-12.3159
▁sjlvstndigt	-12.3159
▁llevar	-12.3159
▁aplicaciones	-12.3159
▁receipt	-12.3159
▁stuff	-12.3159
geschft	-12.3159
▁attribution	-12.3159
▁metrology	-12.3159
▁$215,000	-12.3159
▁atualiza	-12.3159
▁cdigo	-12.3159
▁Wissen	-12.3159
▁interlocuteurs	-12.3159
▁oprations	-12.3159
▁praktisch	-12.3159
▁BigQuery	-12.3159
▁aborda	-12.3159
▁literacy	-12.3159
▁Instrumentation	-12.3159
▁blueprints	-12.3159
gressive	-12.3159
▁frmja	-12.3159
▁lifestyle	-12.3159
▁Identification	-12.3159
▁flexibilidad	-12.3159
▁independence	-12.3159
▁renomme	-12.3159
▁propsito	-12.316
▁parvenir	-12.316
▁Kollegen	-12.316
▁lagspelare	-12.316
▁judgement	-12.316
ujeme	-12.316
▁DOM	-12.316
▁Urban	-12.316
▁logistique	-12.316
▁society	-12.316
▁mjlig	-12.316
▁Efter	-12.316
▁profissionais	-12.316
▁summary	-12.316
▁sentiment	-12.316
▁Construction	-12.316
▁diseo	-12.316
▁inovador	-12.316
▁compassionate	-12.316
▁prepping	-12.316
▁Borough	-12.316
▁modularity	-12.3161
▁calidad	-12.3161
▁planification	-12.3161
▁daher	-12.3161
▁itself	-12.3161
▁Organised	-12.3161
▁kombinera	-12.3161
▁calm	-12.3161
▁standpoint	-12.3162
▁triage	-12.3162
▁CFO	-12.3162
▁interconnects	-12.3162
▁visuelle	-12.3162
▁VPN	-12.3162
▁lindustrie	-12.3162
▁swiftly	-12.3163
▁$115,000.00	-12.3163
▁ITIL	-12.3163
▁XDR	-12.3163
Lunch	-12.3163
▁experincia	-12.3163
▁corrosion	-12.3163
▁lentreprise	-12.3165
ingenjrer	-12.3165
▁formacin	-12.3166
▁NASA	-12.3166
▁clubs	-12.3166
▁offboarding	-12.3166
▁bright	-12.3166
▁Lending	-12.3167
▁Personas	-12.3167
▁salles	-12.3167
▁savoir	-12.3167
hatsz	-12.3167
▁biological	-12.3168
▁assur	-12.3168
▁abuse	-12.3168
▁runions	-12.3168
▁copywriters	-12.3169
▁firewalls	-12.3169
▁moderators	-12.3169
▁certificaes	-12.317
▁langlais	-12.3172
▁section	-12.3172
▁aggregation	-12.3173
▁omfatta	-12.3174
▁Ubi	-12.3174
▁PART	-12.3175
▁bulk	-12.3175
▁IPC	-12.3175
▁helhet	-12.3175
▁prgla	-12.3176
▁PCI	-12.3176
▁repeated	-12.3176
lernen	-12.3177
▁Behavior	-12.3177
▁Asana	-12.3177
NL	-12.3178
▁connectors	-12.3178
▁Reactive	-12.3178
▁starka	-12.3178
▁Okta	-12.318
▁therapy	-12.318
▁PySpark	-12.318
▁repositories	-12.318
▁MANAGER	-12.318
▁Competencies	-12.318
▁Japanese	-12.318
▁Settlement	-12.318
▁vllalat	-12.318
▁materiais	-12.318
▁Strategize	-12.318
▁mesh	-12.3181
▁Datadog	-12.3181
▁Character	-12.3182
▁TDD	-12.3182
▁Title	-12.3182
▁DOC	-12.3182
▁concurrence	-12.3182
▁acres	-12.3183
▁BDD	-12.3183
▁valves	-12.3183
▁modification	-12.3184
▁kunskaper	-12.3184
EWM	-12.3186
▁STA	-12.3186
ems	-12.3186
▁Answers	-12.3187
▁industrier	-12.3187
▁kompetenser	-12.3188
▁intervie	-12.3189
▁Electronics	-12.319
▁spare	-12.319
▁trabajar	-12.3193
▁anniversar	-12.3193
▁preventiv	-12.3193
▁SQS	-12.3194
▁Current	-12.3194
▁activating	-12.3197
▁lis	-12.3198
▁contar	-12.3199
▁utvecklingsplan	-12.32
▁entrega	-12.32
financiers	-12.32
▁introduction	-12.3202
▁dquipe	-12.3202
Residenc	-12.3202
▁recipes	-12.3203
▁255145	-12.3203
▁pionnier	-12.3203
▁Measures	-12.3203
▁Workflows	-12.3205
▁boards	-12.3206
▁hung	-12.3207
casts	-12.3209
▁$90,000	-12.3212
▁Energy	-12.3212
▁Assignment	-12.3213
:$19	-12.3213
▁Craft	-12.3213
▁buen	-12.3214
▁Interaction	-12.3214
▁appeal	-12.3215
▁werk	-12.3215
▁Agents	-12.3216
▁prob	-12.3216
▁samples	-12.3218
▁sprints	-12.3219
▁informative	-12.3219
▁cet	-12.3219
▁LMS	-12.3221
sweise	-12.3221
▁ervaring	-12.3222
▁gleich	-12.3222
▁Signal	-12.3222
▁resolu	-12.3222
couple	-12.3225
ffiliation	-12.3225
▁ethical	-12.3225
▁programmers	-12.3229
▁crez	-12.3231
▁LLM	-12.3234
OCR	-12.3234
▁Mglichkeit	-12.3234
▁reporters	-12.3236
▁interagi	-12.3237
AC	-12.3237
urs	-12.3239
▁chose	-12.3239
▁routes	-12.324
og	-12.324
▁slide	-12.3241
▁courage	-12.3242
Study	-12.3247
▁determination	-12.3249
▁relationnelle	-12.3249
▁Les	-12.3249
▁logical	-12.325
▁margins	-12.3252
▁razo	-12.3254
▁memos	-12.3255
▁263404	-12.3257
▁genomfra	-12.3257
▁collaboratif	-12.3258
▁redesign	-12.3266
▁ecommerce	-12.3268
odcast	-12.3269
▁electrode	-12.3269
▁hosts	-12.3271
erfarenhet	-12.3275
seaux	-12.3275
miento	-12.3276
IBM	-12.3276
▁Sp	-12.3277
▁compromise	-12.3278
oc	-12.3281
zw	-12.3281
▁Assure	-12.3282
lat	-12.3285
▁263413	-12.3286
▁emphasiz	-12.329
▁DSI	-12.3291
▁approachable	-12.3299
rite	-12.33
ommunicera	-12.3301
▁1.	-12.3303
▁hydraulics	-12.3304
onro	-12.3306
Esta	-12.3307
▁journals	-12.3309
▁263347	-12.3311
▁needle	-12.3311
▁candidato	-12.3313
▁computation	-12.3313
▁fysi	-12.3315
enterprise	-12.3316
arca	-12.3318
▁timeframe	-12.332
asa	-12.3323
▁MST	-12.3325
▁avant	-12.3328
BD	-12.3331
▁Tempe	-12.3331
▁3-4	-12.3334
▁iteratively	-12.3338
▁preferences	-12.334
multi	-12.334
▁AV	-12.3343
▁Conversation	-12.3343
▁observations	-12.3343
▁Redis	-12.3348
389	-12.3348
▁Validate	-12.3348
dition	-12.335
net	-12.335
▁advised	-12.3357
▁Pipelines	-12.3357
900	-12.336
ienne	-12.3364
▁hospitals	-12.3365
▁Ttigkeit	-12.3365
tor	-12.3365
▁honesty	-12.3367
▁Themen	-12.3368
▁Labs	-12.3371
▁bem	-12.3371
▁Con	-12.3371
▁Nordics	-12.3372
▁charg	-12.3374
▁locales	-12.3382
ake	-12.3383
▁weight	-12.3385
▁nem	-12.3388
key	-12.3397
▁plant	-12.3397
▁breath	-12.3401
▁steward	-12.3402
Ops	-12.3403
months	-12.3406
▁Groups	-12.3409
-410	-12.3409
▁baseline	-12.3414
lande	-12.3415
▁profiling	-12.3416
RS	-12.3416
▁2000	-12.3416
Dvelopper	-12.3432
▁traffick	-12.3434
▁262965	-12.3434
lusion	-12.3434
▁263352	-12.3435
kit	-12.3435
▁underst	-12.3436
▁revisions	-12.3439
▁IaC	-12.3442
▁equipped	-12.3442
▁specialize	-12.3444
▁entitle	-12.3447
▁workshop	-12.3457
▁Easter	-12.3458
▁riche	-12.3468
▁internas	-12.3471
▁RFPs	-12.3471
guided	-12.3474
Dfini	-12.3475
duction	-12.3478
▁containers	-12.348
▁allian	-12.3481
tended	-12.3483
round	-12.3488
▁ME	-12.3488
▁strukturera	-12.3491
Excellente	-12.3492
onsistently	-12.3492
▁figures	-12.3493
▁Saturdays	-12.3494
assemblies	-12.3502
▁broaden	-12.3503
croscop	-12.3506
▁Montreal	-12.3509
TIA	-12.3512
ABB	-12.3512
▁Frameworks	-12.3512
▁sou	-12.3515
▁meters	-12.3517
skar	-12.3517
▁views	-12.3518
▁imagina	-12.3519
AP	-12.352
▁projekter	-12.3522
▁returns	-12.3526
▁physiolog	-12.3527
▁300	-12.3532
mark	-12.3534
▁Polic	-12.3536
▁onder	-12.3538
Genera	-12.3539
▁263350	-12.354
▁loop	-12.3541
expert	-12.3542
▁secret	-12.3542
▁motors	-12.3543
stakes	-12.3543
▁produktions	-12.3544
okus	-12.3544
▁relati	-12.355
▁equipa	-12.3552
eux	-12.3553
oking	-12.356
nalista	-12.3562
Leading	-12.3562
▁Exprience	-12.3563
▁sicher	-12.3566
▁Communicat	-12.3567
teknisk	-12.3569
going	-12.3569
▁apporter	-12.357
▁egen	-12.3571
▁Fall	-12.3575
versus	-12.3579
▁wed	-12.3585
ienta	-12.3589
schle	-12.3594
artificielle	-12.3595
▁motivations	-12.3597
rug	-12.3602
70,000	-12.3608
▁TeamA	-12.3611
▁5-7	-12.3612
0+	-12.3616
▁263396	-12.3619
▁mal	-12.362
diga	-12.362
▁vlkom	-12.3627
▁ju	-12.3628
NQ	-12.3631
▁262421	-12.3631
ieuwe	-12.3633
▁definitions	-12.3633
▁redefin	-12.3636
esolve	-12.3642
▁multifa	-12.3646
▁envi	-12.3646
▁fre	-12.365
PPL	-12.365
bac	-12.3651
▁processos	-12.3651
▁layers	-12.3678
▁similares	-12.3681
fli	-12.3684
▁collects	-12.3688
ivel	-12.3691
ounded	-12.3691
▁titles	-12.3694
land	-12.3695
▁Studios	-12.3696
▁ev	-12.37
▁annually	-12.3704
legal	-12.3716
wasser	-12.3719
ham	-12.3719
arbeiten	-12.3721
naus	-12.3724
ost	-12.3725
stimm	-12.3726
▁Weld	-12.3727
43	-12.3733
ear	-12.3734
▁Sk	-12.3736
▁Complet	-12.3737
SOCIA	-12.3746
▁maximise	-12.3748
▁Noss	-12.3755
▁trad	-12.3762
▁Officers	-12.3766
▁Supervisors	-12.3766
▁$140,000	-12.3767
ken	-12.3782
▁kommunikativ	-12.3782
▁old	-12.3788
508	-12.379
▁pertain	-12.3794
▁serv	-12.3798
rika	-12.38
ocused	-12.3804
▁accident	-12.3805
▁investigat	-12.3805
▁EC	-12.3807
RTUN	-12.3809
takes	-12.3825
rog	-12.3828
zu	-12.3834
▁oversea	-12.3837
▁invit	-12.3841
entos	-12.3843
▁enrichir	-12.3845
▁cu	-12.3846
▁aller	-12.3849
▁tap	-12.385
▁passe	-12.3865
▁ones	-12.3867
55-	-12.3867
▁eigen	-12.3868
▁$20.	-12.3868
▁OF	-12.3876
aster	-12.3878
▁VM	-12.3879
ato	-12.3887
▁redo	-12.3889
▁eigene	-12.389
▁vrifi	-12.3891
▁Save	-12.3896
so	-12.39
▁appel	-12.3902
▁reported	-12.3903
estar	-12.3903
Columb	-12.3907
iving	-12.3907
▁bars	-12.3909
▁wants	-12.391
▁formalis	-12.3915
dom	-12.3916
Assur	-12.3921
▁aren	-12.3927
ledning	-12.3935
▁enforc	-12.3938
▁263434	-12.394
accept	-12.395
4-8	-12.3957
elt	-12.3959
▁necesi	-12.3963
leri	-12.3969
20:26:43.987	-12.3981
▁ide	-12.3989
dag	-12.399
build	-12.3993
▁contracting	-12.3997
▁meilleure	-12.3998
vens	-12.4008
▁energ	-12.4016
rk	-12.4022
▁Graph	-12.4026
▁Lu	-12.4026
▁263774	-12.4033
▁ki	-12.4035
rough	-12.4043
xes	-12.405
:*	-12.4054
▁trabaja	-12.4066
▁stud	-12.4068
eur	-12.4072
▁roo	-12.4072
▁ba	-12.4074
Skick	-12.408
▁Evaluat	-12.4084
▁wit	-12.4086
▁speeds	-12.4088
▁cherche	-12.409
tirement	-12.4091
ati	-12.4093
▁1,	-12.4105
PL	-12.4106
▁Bangalore	-12.4107
mid	-12.411
▁codes	-12.4112
eir	-12.4117
EX	-12.4118
Airb	-12.4121
▁accessing	-12.4123
aciones	-12.4123
▁Medic	-12.4125
Focus	-12.4129
nada	-12.4133
nsta	-12.4138
njur	-12.4142
▁Institution	-12.4145
92,000	-12.4145
book	-12.4146
nan	-12.4148
avoir	-12.4149
▁Investigati	-12.4151
gger	-12.4154
▁lay	-12.4158
/.	-12.4162
terview	-12.4164
▁recording	-12.4176
achievement	-12.4185
prsenter	-12.4191
▁DSP	-12.4191
▁vida	-12.4199
prsentant	-12.4203
▁abgeschlossene	-12.4209
▁Mand	-12.421
▁skerhetsklass	-12.4218
ledare	-12.4223
▁mods	-12.423
tendance	-12.4239
▁correspond	-12.4243
▁Dans	-12.4245
▁planner	-12.4245
▁opens	-12.4252
▁incl	-12.4253
",1	-12.426
▁Organiz	-12.4267
▁Char	-12.4268
Don	-12.4271
▁rel	-12.4286
▁mil	-12.4286
▁checking	-12.4288
▁17	-12.4289
food	-12.4293
▁Medi	-12.4297
VIN	-12.4298
tenir	-12.43
▁Din	-12.4316
systems	-12.4326
ool	-12.433
ras	-12.4335
▁manuals	-12.4342
orientation	-12.4346
▁mobiles	-12.4354
inum	-12.4355
▁vulnerabilit	-12.4357
ology	-12.436
Night	-12.4362
▁$15	-12.4363
▁degrees	-12.4373
lock	-12.4378
nthusiastically	-12.4378
App	-12.4378
▁lng	-12.4379
▁consulta	-12.4383
att	-12.4385
hos	-12.4389
web	-12.4398
910	-12.4399
772	-12.4399
efood	-12.4402
▁fais	-12.4405
▁tier	-12.4406
strategy	-12.4409
▁Ph	-12.4411
skt	-12.4421
expertise	-12.4424
dra	-12.4424
▁loca	-12.4424
rendre	-12.4431
zi	-12.4438
corporate	-12.4442
▁porte	-12.4443
Come	-12.4445
content	-12.4446
▁dot	-12.4454
cause	-12.4458
▁adaptar	-12.4465
▁cat	-12.4467
heter	-12.4467
email	-12.4474
Desenvolv	-12.4474
▁personnali	-12.4475
▁Har	-12.4477
launch	-12.4481
▁Surg	-12.4481
▁majori	-12.4484
hibit	-12.4487
LLM	-12.4487
risk	-12.4489
▁bereit	-12.4492
▁Continu	-12.4494
Feel	-12.4494
▁portef	-12.4494
division	-12.4496
▁180	-12.4496
vancement	-12.4498
,000	-12.4498
language	-12.4505
host	-12.4511
applications	-12.4517
verything	-12.4519
Equal	-12.4523
vendor	-12.4529
▁CSP	-12.4529
▁ferr	-12.453
▁konst	-12.4531
Qualification	-12.4533
VA	-12.4537
▁4-	-12.4538
domain	-12.4541
▁verifiering	-12.4543
▁$135,000	-12.4546
ea	-12.4548
effective	-12.4551
▁atua	-12.4554
chef	-12.4554
Integrate	-12.4556
▁terme	-12.4556
programmer	-12.456
het	-12.456
Group	-12.4561
▁intention	-12.4564
techniques	-12.4565
-19	-12.4565
region	-12.4567
acquisition	-12.4568
ITA	-12.4569
ommes	-12.4573
Excelente	-12.4577
Azure	-12.4578
Receive	-12.458
▁Mi	-12.4582
efficient	-12.4589
Fast	-12.4589
border	-12.459
designer	-12.4593
Manufacturing	-12.4595
Leave	-12.4595
Assess	-12.4596
category	-12.4596
800	-12.4597
▁planes	-12.46
Corporate	-12.4602
▁soon	-12.4602
People	-12.4605
increasing	-12.4606
▁animate	-12.4607
Play	-12.4609
omrdet	-12.4609
rounded	-12.4609
Contribution	-12.461
SDLC	-12.461
Education	-12.461
SALES	-12.4611
Flexibility	-12.4611
Content	-12.4611
Trust	-12.4611
Certificate	-12.4612
Algeria	-12.4612
prioritise	-12.4612
▁dispose	-12.4613
Comptences	-12.4613
rfr	-12.4613
Atlanta	-12.4613
Recruiting	-12.4613
▁extern	-12.4614
Kenntnisse	-12.4616
download	-12.4616
Spring	-12.4616
IL	-12.4617
Stack	-12.4618
university	-12.4618
SOX	-12.4618
Meal	-12.4619
Engine	-12.462
POS	-12.462
▁exhaust	-12.462
onboarding	-12.4622
lect	-12.4622
Database	-12.4623
traffic	-12.4624
touch	-12.4624
arbete	-12.4625
ASE	-12.4627
▁leve	-12.4629
CX	-12.4631
monthly	-12.4631
▁Br	-12.4632
▁pri	-12.4633
findest	-12.4634
mend	-12.464
▁nas	-12.4643
20:26:53.927	-12.4644
Tempe	-12.4645
Avantages	-12.4654
rious	-12.4655
TCP	-12.4658
ER	-12.4662
eather	-12.4664
▁biotech	-12.4665
▁utvecklings	-12.4668
▁dar	-12.467
best	-12.4671
▁valu	-12.4672
▁kon	-12.4673
Programming	-12.4675
▁tackl	-12.4677
▁kl	-12.4678
▁intens	-12.468
Best	-12.4681
bugs	-12.4685
Art	-12.4688
▁bancaire	-12.4693
▁trav	-12.4694
▁composite	-12.4697
▁laptop	-12.4705
▁Benefit	-12.4706
▁scanner	-12.471
▁Teamplayer	-12.4712
▁requisition	-12.4715
▁moteur	-12.4716
▁plataforma	-12.4716
▁Nordic	-12.4716
▁Holiday	-12.4716
Operational	-12.4716
izing	-12.4717
▁console	-12.4718
▁margin	-12.4718
▁servicio	-12.4718
▁schematic	-12.4718
▁Ecosystem	-12.4719
och	-12.4726
▁objection	-12.4726
gyi	-12.473
▁Prozess	-12.4732
▁hydro	-12.4738
▁concern	-12.474
▁alarm	-12.474
punkt	-12.4741
▁cumpli	-12.4741
▁intervention	-12.4743
entreprises	-12.475
▁quote	-12.4751
press	-12.4752
▁constraint	-12.4752
▁Recruit	-12.4752
books	-12.4753
▁Natur	-12.4753
alo	-12.4753
▁cycl	-12.4754
15,"	-12.4758
GE	-12.4759
▁ejecu	-12.4761
puc	-12.4761
ot	-12.4766
nte	-12.4767
20:26:57.392	-12.4767
▁harmoni	-12.4769
▁pentest	-12.4769
▁draft	-12.4771
20:26:42.480	-12.4772
Set	-12.4773
69,"	-12.4773
▁exception	-12.4774
trava	-12.4776
bus	-12.4777
turn	-12.4777
annual	-12.4778
unk	-12.478
sources	-12.4781
valuer	-12.4782
via	-12.4783
▁portal	-12.4787
integrations	-12.4791
di	-12.4792
▁workstream	-12.4793
Out	-12.4796
▁Grow	-12.4797
Gre	-12.4798
▁encounter	-12.4799
tend	-12.4801
▁$7	-12.4802
▁consolidat	-12.4802
assembly	-12.4807
▁temporar	-12.4807
▁comporte	-12.4809
sale	-12.4809
▁Korea	-12.481
▁speech	-12.4811
▁BON	-12.4812
cybersecurit	-12.4815
▁Tunisi	-12.4815
erial	-12.4815
▁glaub	-12.4821
▁emerge	-12.4822
▁popul	-12.4822
▁tarif	-12.4822
▁disponibili	-12.4823
vailable	-12.4824
▁trustworth	-12.4825
Birmingham	-12.4826
▁Elkonstrukt	-12.4826
beidsvoorwaarden	-12.4826
Begeisterung	-12.4826
Kontaktuppgifter	-12.4826
▁Ambassador	-12.4826
▁Bristol	-12.4826
▁CANDIDATE	-12.4826
▁CCaaS	-12.4826
▁CULTURE	-12.4826
▁Cosmetics	-12.4826
▁JAVA	-12.4826
▁Jetpack	-12.4826
▁Nachhaltigkeit	-12.4826
▁Nutrition	-12.4826
▁Schlssel	-12.4826
▁TECHNICIAN	-12.4826
▁Warehousing	-12.4826
▁Wasserhaushalt	-12.4826
▁arquite	-12.4826
▁artifacts	-12.4826
▁auktoriserad	-12.4826
▁befintlig	-12.4826
▁belangrijk	-12.4826
▁egenskaper	-12.4826
▁entfalten	-12.4826
▁entreprenad	-12.4826
▁flammable	-12.4826
▁flawless	-12.4826
▁friskvrd	-12.4826
▁frvaltning	-12.4826
▁kennis	-12.4826
▁livraison	-12.4826
▁mathematics	-12.4826
▁mnniskor	-12.4826
▁olmas	-12.4826
▁patience	-12.4826
▁utrustning	-12.4826
▁vibration	-12.4826
▁zustndig	-12.4826
▁$28.00	-12.4826
▁Avatar	-12.4826
▁Claims	-12.4826
▁Maternity	-12.4826
▁cartography	-12.4826
▁clinicians	-12.4826
▁colaboradores	-12.4826
▁emergencies	-12.4826
▁hayatn	-12.4826
▁plugins	-12.4826
Responsabilits	-12.4826
▁COVID	-12.4826
▁Confirm	-12.4826
▁illuminat	-12.4826
▁livrables	-12.4826
▁respirator	-12.4826
▁tapasztalat	-12.4826
▁Stuff	-12.4826
▁konsultuppdrag	-12.4826
▁length	-12.4826
▁Brasil	-12.4826
▁Presence	-12.4826
▁gennem	-12.4826
RBDC	-12.4826
▁frequency	-12.4826
▁Programmatic	-12.4826
▁noktalar	-12.4826
▁okay	-12.4826
▁similaire	-12.4826
▁Teilzeit	-12.4826
▁engagemang	-12.4826
HEH	-12.4826
▁CISSP	-12.4826
▁hgskole	-12.4826
▁2025-04-30	-12.4826
▁Infraestructura	-12.4826
▁certificaciones	-12.4826
IELD	-12.4826
▁$185,000	-12.4826
▁rdenes	-12.4826
▁dmarche	-12.4826
▁32529	-12.4826
▁Lumpur	-12.4826
▁concret	-12.4826
▁Airtable	-12.4826
▁Ledger	-12.4826
▁custody	-12.4826
▁journalism	-12.4826
$15.70	-12.4826
▁isolation	-12.4826
▁pragmatique	-12.4826
▁vardag	-12.4826
▁Detection	-12.4826
▁Antonio	-12.4826
▁conformidade	-12.4826
Rocklin	-12.4826
▁metadata	-12.4826
ndamentales	-12.4826
▁pandas	-12.4826
▁forskel	-12.4826
▁sahip	-12.4826
▁Logging	-12.4826
▁geographies	-12.4826
▁rattach	-12.4826
▁athlet	-12.4826
▁kvetse	-12.4826
▁vagy	-12.4827
▁trivas	-12.4827
▁Express	-12.4827
▁banque	-12.4827
▁branscher	-12.4827
▁VAT	-12.4827
▁Measurement	-12.4827
▁Crime	-12.4827
▁momentum	-12.4827
▁tidiga	-12.4827
▁ceremonies	-12.4827
Starshield	-12.4827
▁psychology	-12.4827
▁papper	-12.4827
▁europenne	-12.4827
▁Aufbau	-12.4827
▁recursos	-12.4827
▁preclinical	-12.4827
▁automatique	-12.4827
▁CDK	-12.4828
▁classroom	-12.4828
▁rigging	-12.4828
▁repeatable	-12.4828
▁PLUS	-12.4828
▁Syst	-12.4828
▁analtica	-12.4828
roende	-12.4828
▁GCC	-12.4828
▁Guard	-12.4828
marketeer	-12.4828
▁violations	-12.4828
▁photograph	-12.4828
▁Acumen	-12.4828
▁regulated	-12.4828
▁tketiciler	-12.4828
▁$38.00	-12.4829
▁feesAdditional	-12.4829
▁catalogue	-12.4829
▁relevance	-12.4829
▁diligent	-12.4829
▁elaborate	-12.4829
▁outlets	-12.483
▁pilotage	-12.483
▁$24	-12.483
▁ACL	-12.483
▁PLM	-12.483
▁Monate	-12.483
▁kolleger	-12.483
▁compromisso	-12.4831
▁ARM	-12.4831
▁meal	-12.4831
▁saker	-12.4831
▁entwickeln	-12.4831
▁aisle	-12.4831
▁warm	-12.4831
▁glaubst	-12.4831
Veille	-12.4831
▁responsiveness	-12.4831
▁combat	-12.4832
▁oneself	-12.4832
▁259449	-12.4832
▁avoid	-12.4832
▁birli	-12.4833
▁258940	-12.4833
▁tareas	-12.4833
quisition	-12.4833
BU	-12.4833
▁standardiz	-12.4833
▁anything	-12.4833
▁vacanc	-12.4833
▁activit	-12.4834
▁taste	-12.4834
▁HW	-12.4834
▁gesam	-12.4834
▁hum	-12.4834
▁contractual	-12.4835
▁psychological	-12.4835
▁vidare	-12.4836
▁dynamische	-12.4836
▁comunicao	-12.4836
▁essentielle	-12.4836
▁dfis	-12.4837
▁intresserad	-12.4837
▁DBT	-12.4837
▁dashers	-12.4837
▁$120,000.00	-12.4838
▁paradigms	-12.4838
▁breakfasts	-12.4838
▁announcements	-12.4838
▁Sistemas	-12.4838
wholesale	-12.4839
▁Math	-12.4839
▁QC	-12.484
SOW	-12.484
▁outras	-12.484
▁dispensing	-12.484
rives	-12.484
▁260143	-12.484
▁tillhr	-12.484
▁avanzado	-12.484
titive	-12.4841
▁damlioration	-12.4841
PKI	-12.4841
▁AC	-12.4842
▁arrange	-12.4842
Erfarenhet	-12.4842
▁DAM	-12.4843
▁Merchandising	-12.4843
▁internos	-12.4843
▁hope	-12.4843
▁Back	-12.4844
▁interpretation	-12.4844
▁starkare	-12.4844
▁furnishing	-12.4845
▁GPT	-12.4845
▁seguridad	-12.4845
devops	-12.4845
▁supervisory	-12.4845
▁CICD	-12.4845
▁Trainer	-12.4846
▁tcnico	-12.4847
▁algorithmes	-12.4847
▁fonctionnelles	-12.4848
▁ARR	-12.4848
▁permis	-12.4849
▁conceptualize	-12.4849
▁intent	-12.4849
20:26:44.430	-12.4849
▁species	-12.485
tfyll	-12.485
▁Recommend	-12.485
▁CCTV	-12.485
▁JSON	-12.485
▁Pakistan	-12.485
▁Privilege	-12.485
▁Praktikum	-12.485
▁Immatrikulation	-12.485
▁SmartRecruiters	-12.485
▁Litigation	-12.4851
▁Cybersecurity	-12.4851
▁evangeliz	-12.4851
▁dfinition	-12.4851
▁Recreation	-12.4851
▁forums	-12.4852
▁proofread	-12.4852
▁BPO	-12.4853
▁mglich	-12.4853
▁ONE	-12.4854
desco	-12.4854
▁CloudFormation	-12.4854
▁Hill	-12.4855
▁Accountability	-12.4855
▁virtualization	-12.4855
▁JDM	-12.4856
▁fonctionnels	-12.4856
Ver	-12.4856
▁repeat	-12.4856
▁Eager	-12.4857
▁Conditions	-12.4857
/7440000491	-12.4857
▁disputes	-12.4857
▁Agreements	-12.4858
▁briefing	-12.4858
▁horses	-12.4858
▁uygulama	-12.4858
Newton	-12.4858
▁Aires	-12.4859
Cli	-12.4859
▁interesses	-12.486
▁wallets	-12.486
▁Deli	-12.4861
▁existants	-12.4862
▁bri	-12.4862
▁wichtig	-12.4862
▁steg	-12.4862
▁propor	-12.4863
▁pacing	-12.4863
▁OH	-12.4864
ASME	-12.4865
▁justification	-12.4867
cf	-12.4871
uggest	-12.4871
eve	-12.4872
▁pulse	-12.4875
▁tmogat	-12.4876
▁fa	-12.4878
▁260805	-12.4878
▁browsers	-12.4878
▁ligne	-12.4879
▁ergonomic	-12.488
▁completa	-12.4882
▁fortstt	-12.4884
▁6:00	-12.4884
▁boot	-12.4885
,500	-12.4885
▁$105,000	-12.4886
▁screens	-12.4886
▁datacenter	-12.4886
▁SDET	-12.4888
▁FMECA	-12.4888
▁Aptitude	-12.4889
▁Luxembourg	-12.4889
▁Qualifikation	-12.4889
▁fortement	-12.489
▁PLAN	-12.489
▁Denver	-12.489
▁Programm	-12.4891
ior	-12.4891
▁racial	-12.4892
▁Fhigkeiten	-12.4893
ill	-12.4893
1""	-12.4893
▁choi	-12.4894
LS	-12.4895
▁Fullstack	-12.4895
▁MDM	-12.4897
▁revise	-12.4898
▁skra	-12.4899
▁overview	-12.49
▁alliances	-12.4901
▁Zone	-12.4903
▁komunikac	-12.4904
▁Ordering	-12.4905
▁sektion	-12.4906
▁approve	-12.4909
ndustrialisation	-12.491
rney	-12.4911
▁Speaker	-12.4912
framtidens	-12.4913
milia	-12.4914
▁court	-12.4914
▁entail	-12.4915
▁gente	-12.4917
▁exotics	-12.4919
▁carreiras	-12.4919
▁SDKs	-12.4919
▁podcasts	-12.492
▁decks	-12.4921
▁Institutions	-12.4921
▁anlggningar	-12.4921
▁262324	-12.4921
▁$125,000	-12.4923
▁idioma	-12.4925
▁entered	-12.4926
▁Translate	-12.4929
20:26:54.7115	-12.4929
▁(15	-12.493
▁PV	-12.493
▁Chef	-12.4931
auaufsicht	-12.4931
-9	-12.4933
▁Fire	-12.4934
▁defensib	-12.4934
▁Educational	-12.4936
▁256254	-12.4936
▁Accessor	-12.4937
:$20	-12.494
voie	-12.494
▁262709	-12.4941
3-4	-12.4941
▁servicing	-12.4943
erek	-12.4943
▁rework	-12.4947
Care	-12.4948
▁RCA	-12.495
▁replacement	-12.4951
▁organiz	-12.4951
▁261905	-12.4952
▁263158	-12.4952
MDF	-12.4953
▁autonome	-12.4954
▁Update	-12.4955
▁vilg	-12.4956
▁dcision	-12.4958
▁samen	-12.4959
▁Quarter	-12.496
saving	-12.496
▁PA	-12.496
▁Organisations	-12.4962
▁premise	-12.4963
20:26:54.7110	-12.4963
antes	-12.4963
▁Hive	-12.4964
▁stell	-12.4964
300	-12.4966
▁Munich	-12.4967
DOD	-12.4968
found	-12.4969
▁262684	-12.497
atar	-12.4971
application	-12.4971
▁$13	-12.4972
Inspire	-12.4975
▁ovan	-12.4977
▁blocking	-12.4978
rval	-12.4979
▁viktiga	-12.498
▁permits	-12.4982
▁drop	-12.4983
▁leiten	-12.4983
apprendre	-12.4984
penda	-12.4984
▁realistic	-12.4985
/744000049156	-12.4988
▁alcan	-12.4988
mitted	-12.4989
uni	-12.4989
ubject	-12.4989
▁gel	-12.499
▁zo	-12.4991
▁crea	-12.4996
▁Interesse	-12.4999
▁workstreams	-12.5003
▁APM	-12.5003
▁Fle	-12.5005
Managerial	-12.5005
▁263645	-12.5007
AK	-12.5007
▁Graduate	-12.5007
▁Limonest	-12.5008
▁Colleague	-12.5009
Mand	-12.5009
MC	-12.501
▁tablets	-12.5011
elemundo	-12.5015
envis	-12.5016
characterization	-12.5019
▁Developers	-12.5021
▁querying	-12.5023
Hav	-12.5023
▁Computing	-12.503
▁styr	-12.5032
sville	-12.5034
▁Containers	-12.5035
▁technologiques	-12.5042
▁mthodologie	-12.5042
▁SALES	-12.5046
2-3	-12.5054
+5	-12.5056
97,000	-12.5063
▁surround	-12.5064
▁bids	-12.5071
▁verifying	-12.5074
▁257445	-12.5076
▁bac	-12.5077
teknik	-12.5078
▁meta	-12.5078
▁bookings	-12.5081
▁hur	-12.5084
information	-12.5086
▁instruct	-12.5086
▁uplevel	-12.5087
▁Exam	-12.5087
251	-12.5089
▁info	-12.5092
▁tables	-12.5092
▁Find	-12.5093
ND	-12.5096
agsl	-12.5097
▁profiles	-12.51
▁distincti	-12.5102
▁versioning	-12.5109
ERN	-12.5113
20:26:57.391	-12.5113
derst	-12.5115
▁pursued	-12.5121
▁efooder	-12.5122
▁tune	-12.5126
▁Financi	-12.5126
▁ingenjr	-12.5128
▁nove	-12.5129
efter	-12.5134
Dis	-12.5135
▁Optic	-12.5136
▁262153	-12.5141
9,000	-12.5143
ass	-12.5144
▁247283	-12.5145
▁Force	-12.5148
▁numerical	-12.5151
▁accountant	-12.5152
▁starter	-12.5153
▁vectors	-12.5153
)/	-12.5157
▁bend	-12.5158
PF	-12.5159
Mod	-12.5165
▁ON	-12.517
▁$22.	-12.5171
▁lack	-12.5174
▁centric	-12.5175
▁physiologi	-12.5176
▁263606	-12.5177
Blgen	-12.5181
▁cameras	-12.5184
35-	-12.5185
▁Clean	-12.5185
▁setzen	-12.5187
▁600	-12.5188
▁DA	-12.5189
▁wall	-12.5189
/2025.	-12.5189
▁Draft	-12.5193
▁comms	-12.5196
ener	-12.5197
▁satisfa	-12.5197
▁strategi	-12.5198
▁seasonal	-12.52
/744000049159	-12.5201
▁Entwicklungs	-12.5203
▁participer	-12.5204
▁Vielfalt	-12.5205
8-47	-12.5211
▁orienter	-12.5212
▁fel	-12.5213
▁Cybers	-12.5216
▁calibrate	-12.5217
matiques	-12.522
eer	-12.522
▁Psycholog	-12.5222
▁262422	-12.5226
▁conversions	-12.5227
White	-12.523
▁payable	-12.5236
ends	-12.5243
SD	-12.5244
talent	-12.5247
20:26:52.6026	-12.5248
iz	-12.5266
eign	-12.5266
▁$6	-12.5268
▁committee	-12.527
▁susp	-12.5276
▁apporte	-12.5279
▁$23.	-12.5294
tica	-12.5299
ala	-12.53
▁box	-12.5303
ert	-12.5304
20:26:54.306	-12.5305
urez	-12.5308
▁Constant	-12.5309
sbedingungen	-12.5311
▁Ve	-12.5316
▁heard	-12.5319
tenue	-12.5319
saktiviteter	-12.532
Pr	-12.5322
▁visitor	-12.5325
▁PCBs	-12.5326
roduktutveckling	-12.5327
Sist	-12.5334
schlie	-12.5337
bound	-12.5339
ess	-12.534
▁prpar	-12.534
▁daglig	-12.5341
▁overachieve	-12.5341
rmga	-12.5343
▁informal	-12.5344
▁particulire	-12.5349
▁versions	-12.535
aff	-12.5367
ava	-12.5369
avalia	-12.5374
20:26:40.2150	-12.5375
Mon	-12.5377
erna	-12.5379
ada	-12.5383
mind	-12.5385
▁measured	-12.5385
2,500	-12.5387
▁glean	-12.5393
Athens	-12.5396
▁eva	-12.5398
vi	-12.5401
▁Shanghai	-12.5402
conformance	-12.5404
05-	-12.5407
ee	-12.5416
▁Zoom	-12.5421
▁sanita	-12.5425
$60,000	-12.543
communication	-12.5433
▁Ingenieur	-12.5437
Increasing	-12.544
Writ	-12.5445
▁Bas	-12.5453
▁Dive	-12.5455
917	-12.5457
Anlise	-12.5462
nual	-12.5463
omplmentaire	-12.5468
▁Bilingu	-12.5469
▁rewarded	-12.5476
▁Ja	-12.5479
▁CD	-12.5491
▁san	-12.5491
▁Profile	-12.5493
▁advisors	-12.5497
▁handled	-12.5499
20:26:40.2152	-12.5502
Pl	-12.5504
▁16	-12.5512
mekanikkonstrukt	-12.5516
itar	-12.552
FN	-12.5523
▁semaines	-12.5532
vision	-12.5532
▁workers	-12.5532
▁verbally	-12.5534
▁complementa	-12.5535
dadNosPotencia	-12.5536
Diversi	-12.5536
▁director	-12.5538
▁mandate	-12.5543
projekte	-12.5544
TIONS	-12.5545
WAR	-12.5547
▁leverans	-12.5548
Preferabl	-12.5549
redefine	-12.5553
ster	-12.5554
Promo	-12.5557
▁DB	-12.5564
utomatisation	-12.5568
▁infra	-12.5573
ret	-12.5574
victi	-12.5576
▁Cell	-12.5577
▁Hand	-12.5587
Supervis	-12.559
dministracin	-12.559
▁signals	-12.5591
▁propone	-12.5598
▁publish	-12.5601
20:26:50.4463	-12.5604
▁route	-12.5622
iterentwicklung	-12.5628
ces	-12.563
▁ralis	-12.5631
nung	-12.5634
▁passionn	-12.5634
ctuelle	-12.5641
▁dexpert	-12.5641
amenta	-12.5644
▁todos	-12.5648
MES	-12.5651
ju	-12.5652
711	-12.5656
▁Form	-12.5656
▁SEC	-12.5658
▁Confiden	-12.5661
▁ind	-12.5661
▁proposes	-12.567
▁inclusiv	-12.5674
ranais	-12.5677
▁mon	-12.5684
aire	-12.5686
lly	-12.5697
lta	-12.5699
even	-12.5702
EA	-12.5704
▁attraktive	-12.5712
hip	-12.5714
▁installations	-12.5718
plier	-12.5719
sz	-12.572
lik	-12.5724
▁listeners	-12.5724
20:26:52.6029	-12.5727
AD	-12.573
▁rotations	-12.5731
aboratory	-12.5734
▁AR	-12.5735
TI	-12.5737
▁Eine	-12.5739
▁acu	-12.5742
20:26:44.4303	-12.5747
▁meilleur	-12.5759
▁Mitarbeit	-12.5761
str	-12.5763
▁animati	-12.5763
ans	-12.5768
▁$150,000	-12.5768
▁belt	-12.5769
▁expands	-12.5776
uito	-12.578
▁spcific	-12.5785
abilidades	-12.5786
▁cable	-12.5791
medical	-12.5793
picke	-12.5798
▁kontakta	-12.5798
▁rocke	-12.5803
7-4	-12.5812
▁Ing	-12.5814
rad	-12.5816
▁dos	-12.5821
nete	-12.5822
MAK	-12.5837
uk	-12.5841
20:26:54.3065	-12.5842
▁celebr	-12.5843
Al	-12.5848
▁interrupti	-12.5848
PP	-12.585
▁brea	-12.5857
!).	-12.5857
talents	-12.586
▁lik	-12.5864
SIS	-12.5866
ini	-12.5869
ard	-12.5875
▁3-	-12.588
▁263712	-12.5884
▁identifica	-12.5888
▁tea	-12.589
cyber	-12.5893
EM	-12.5898
▁Than	-12.5908
▁fla	-12.591
ocking	-12.591
Charles	-12.5912
▁directions	-12.5916
▁Sell	-12.5919
▁prec	-12.5919
▁erf	-12.592
▁che	-12.5922
serve	-12.5922
liga	-12.5925
order	-12.5928
▁Affinit	-12.5936
86-	-12.5937
▁Als	-12.5938
Comment	-12.5942
20:26:53.5489	-12.5946
▁subs	-12.596
CE	-12.5963
▁allocate	-12.5964
▁Purpose	-12.5964
FI	-12.5966
▁Cover	-12.5981
cia	-12.5984
▁cont	-12.5999
▁presente	-12.5999
▁roller	-12.6
Construir	-12.6
city	-12.6001
/74400004900	-12.6003
veryone	-12.6012
20:26:53.549	-12.6016
open	-12.6017
idadNosPotencia	-12.6022
Dar	-12.6028
▁Einkauf	-12.603
▁achievements	-12.6041
▁CIS	-12.6043
sely	-12.6047
▁mekanik	-12.6052
5/	-12.6055
quit	-12.6058
lic	-12.607
▁Spa	-12.6079
▁Au	-12.6094
20:26:43.579	-12.6096
lite	-12.61
schutz	-12.6101
▁leak	-12.6104
▁Curate	-12.6105
pr	-12.6117
▁lin	-12.6118
df	-12.6124
nak	-12.6126
ark	-12.6131
▁Marke	-12.6148
pre	-12.6148
yle	-12.6151
$124,	-12.6152
Discre	-12.6159
▁creatives	-12.6162
▁continua	-12.6168
Teams	-12.617
▁tag	-12.6171
▁predicti	-12.6171
45-	-12.6174
▁handl	-12.6175
ture	-12.6176
high	-12.6178
▁Infra	-12.6181
▁kandidat	-12.6184
global	-12.6184
▁CZ	-12.6187
/74400004899	-12.619
▁lov	-12.6194
amente	-12.6195
▁rev	-12.62
Elabora	-12.6201
strict	-12.6205
▁Works	-12.621
▁landscapes	-12.6211
infrastructure	-12.6216
▁communicati	-12.6219
▁weigh	-12.6225
▁persnlich	-12.6231
▁coordinates	-12.6233
/744000049187	-12.6234
cash	-12.6237
engagement	-12.6237
else	-12.6251
idade	-12.6251
read	-12.6256
opyright	-12.6256
dar	-12.6257
▁esta	-12.6258
▁kr	-12.6261
▁bl	-12.6262
▁inclusi	-12.6263
▁auditing	-12.6265
steh	-12.6271
▁aspir	-12.6275
terprise	-12.6276
▁protecti	-12.6278
▁Mix	-12.6286
▁apport	-12.6298
▁whe	-12.6307
15+	-12.6318
▁$.	-12.6321
▁Min	-12.6322
eylund	-12.6324
▁goed	-12.6324
prehensive	-12.6325
▁mi	-12.6329
len	-12.6329
39,"	-12.633
unden	-12.6331
public	-12.6337
▁sequences	-12.6338
llningsst	-12.6344
▁ampli	-12.6347
20:26:58.6758	-12.635
rdi	-12.6357
91-	-12.6359
▁cinma	-12.6365
▁once	-12.6373
▁Applie	-12.6376
▁258	-12.6377
▁Emerg	-12.6382
▁relate	-12.6385
multiple	-12.6389
lso	-12.6389
▁Prevent	-12.6395
▁reserve	-12.6398
holder	-12.6399
20:27:00.551	-12.64
▁monetize	-12.6406
$2	-12.6409
:00	-12.6416
▁directed	-12.6417
▁marketplaces	-12.6419
▁minds	-12.642
mmst	-12.642
ouvernance	-12.6423
Information	-12.6424
So	-12.6431
bat	-12.6431
DoorDash	-12.6432
Specialist	-12.6435
industri	-12.6438
20:26:54.7112	-12.644
▁intgrer	-12.644
ss	-12.6441
compliance	-12.6443
▁Consultants	-12.6444
1)	-12.6453
ui	-12.6455
,"2025	-12.6455
solution	-12.646
stens	-12.6461
insights	-12.6464
view	-12.6467
▁Experienc	-12.6468
105	-12.6471
rnv	-12.6472
▁statut	-12.6472
Opportunity	-12.6472
▁grund	-12.6474
equipment	-12.6474
▁14	-12.6474
▁dir	-12.6477
ht	-12.6484
▁$120,000	-12.6486
Intern	-12.6487
q	-12.6487
incident	-12.6489
iddleware	-12.649
mettre	-12.6491
▁mett	-12.6495
law	-12.6498
▁$160,000	-12.6498
▁Chancen	-12.6504
results	-12.6506
implementation	-12.6509
spekt	-12.6509
itten	-12.6511
human	-12.6511
▁plein	-12.6513
▁closed	-12.652
▁Werde	-12.6522
engage	-12.6526
▁explor	-12.6528
▁mediums	-12.6532
eso	-12.6533
verse	-12.6535
▁263665	-12.6545
ggles	-12.6547
fitness	-12.6552
Profil	-12.6552
▁Fa	-12.6553
science	-12.6553
▁Credi	-12.6553
▁spcialis	-12.6553
▁+4	-12.6556
branschen	-12.6561
▁Facilit	-12.6564
Monday	-12.6565
▁quant	-12.6568
FO	-12.6571
MultiSport	-12.6572
WORK	-12.6572
Unser	-12.6577
Provence	-12.6582
OTE	-12.6583
partnerships	-12.6585
Salesforce	-12.6586
Colabora	-12.6588
accountant	-12.6589
ular	-12.659
▁fl	-12.659
Controller	-12.6591
Geschftsbereich	-12.6592
FID	-12.6593
Automation	-12.6596
REQUIREMENTS	-12.6598
Power	-12.6598
konsulter	-12.66
Agile	-12.66
Montpellier	-12.6601
Administration	-12.6601
keeping	-12.6601
floor	-12.6601
ELT	-12.6602
Udemy	-12.6602
Assistant	-12.6602
Angular	-12.6603
coordination	-12.6603
CRM	-12.6604
Internal	-12.6606
Sydney	-12.6606
Media	-12.6607
Serve	-12.6607
orbit	-12.6607
speed	-12.6607
Artist	-12.6608
cleanliness	-12.6609
Limonest	-12.6609
Electrical	-12.661
Graduate	-12.661
▁rekrytera	-12.6612
lsningar	-12.6612
erfaren	-12.6612
Maintenance	-12.6612
Gather	-12.6612
Barcelona	-12.6612
Execution	-12.6613
Sunday	-12.6613
Amazon	-12.6613
kraft	-12.6613
Jira	-12.6613
Student	-12.6614
exempt	-12.6614
Unreal	-12.6615
introduction	-12.6615
College	-12.6615
EHS	-12.6615
JIRA	-12.6615
Budapest	-12.6615
Stennis	-12.6616
FTC	-12.6616
Advise	-12.6616
First	-12.6616
PhD	-12.6616
RFPs	-12.6617
▁feeds	-12.662
Release	-12.6621
BCI	-12.6622
▁vg	-12.6623
location	-12.6625
series	-12.6626
boarded	-12.6626
▁alm	-12.6626
image	-12.6627
▁spe	-12.663
elve	-12.6631
prep	-12.6632
ings	-12.6632
owner	-12.6633
Trade	-12.6634
rollen	-12.6637
Investigat	-12.6638
minimum	-12.6641
▁mar	-12.6644
Safe	-12.6645
fully	-12.6646
district	-12.6647
Mover	-12.6648
word	-12.6649
events	-12.6653
Mastery	-12.6656
▁podcast	-12.6657
cope	-12.6662
uring	-12.6663
▁fell	-12.6665
▁manipulat	-12.6665
▁collaborer	-12.6673
▁Tool	-12.6676
ngal	-12.6677
▁Mal	-12.6677
GIT	-12.668
▁udbud	-12.668
▁introduce	-12.6689
▁1)	-12.669
Cap	-12.6691
▁Receivable	-12.6693
▁HMI	-12.6693
provider	-12.6696
trusted	-12.6702
▁produktion	-12.6702
▁gauge	-12.6704
attend	-12.6705
▁estimation	-12.6706
▁practitioner	-12.6706
▁colleague	-12.6707
▁Investigation	-12.6708
USIN	-12.6709
▁Applicant	-12.671
RD	-12.671
▁Unternehmen	-12.6711
ich	-12.6711
▁ledger	-12.6712
▁Lan	-12.6713
▁carreira	-12.6713
▁exotic	-12.6714
agisse	-12.6715
Challenge	-12.6715
▁necess	-12.6716
▁conclusion	-12.6718
▁article	-12.6718
▁milestone	-12.6719
▁diagnostic	-12.6719
▁logiciel	-12.672
▁integrati	-12.672
▁fixture	-12.672
spa	-12.6722
▁raz	-12.6728
IR	-12.6729
▁reshap	-12.6731
Tracking	-12.6734
▁variation	-12.6734
▁dealers	-12.6737
premises	-12.6738
▁atmospher	-12.6738
▁karrier	-12.6738
rimary	-12.674
tuning	-12.674
OBA	-12.6741
▁pharma	-12.6742
▁accomplishment	-12.6743
▁SDK	-12.6745
▁arm	-12.6746
20:26:52.6023	-12.6747
▁backup	-12.6748
▁pessoa	-12.6748
▁fourni	-12.6748
raum	-12.6749
▁persona	-12.6756
mai	-12.6757
inden	-12.6757
wa	-12.6758
▁switch	-12.6758
Builder	-12.6759
right	-12.676
Contact	-12.6761
tte	-12.6763
▁dataset	-12.6764
unter	-12.6764
▁certifica	-12.6765
▁reason	-12.6766
erst	-12.6767
yi	-12.6768
ory	-12.6771
▁premi	-12.6775
hes	-12.6777
onser	-12.6778
Trabaj	-12.678
ttre	-12.6781
▁gross	-12.6785
▁pertinente	-12.6789
venants	-12.6791
ij	-12.6791
tilisateur	-12.6794
▁squa	-12.6794
mmer	-12.6795
▁Threa	-12.6796
▁vielseitige	-12.6797
try	-12.68
▁rdui	-12.6803
▁polish	-12.6804
▁editor	-12.681
▁Inspect	-12.681
RATION	-12.6811
▁Micro	-12.6811
OL	-12.6812
▁visibilit	-12.6813
▁curiosit	-12.6813
nergie	-12.6814
▁framtid	-12.6814
▁Visio	-12.6815
▁bakgrund	-12.6816
illsammans	-12.6817
STRI	-12.6819
▁Firm	-12.6819
▁zna	-12.6819
▁Coordinat	-12.6819
▁AE	-12.6821
ccupation	-12.6821
▁Region	-12.6822
reichen	-12.6822
eek	-12.6823
sseldorf	-12.6823
80-100	-12.6824
▁subsidiar	-12.6825
▁Construct	-12.6825
elkonstruktor	-12.6825
Eskilstuna	-12.6826
kafka	-12.6826
Gurugram	-12.6826
EXECUTION	-12.6826
▁1263100	-12.6826
▁260992	-12.6826
▁Retrieval	-12.6826
$137,000$2	-12.6826
$151,000$2	-12.6826
▁Anthrop	-12.6826
▁Iceberg	-12.6826
▁ruthless	-12.6826
$338,270	-12.6826
Abgeschlossene	-12.6826
EVEL	-12.6826
Energetic	-12.6826
Maitrise	-12.6826
Privilge	-12.6826
bidrag	-12.6826
durchschnittlich	-12.6826
grundlagen	-12.6826
hierarchical	-12.6826
klubb	-12.6826
▁Acrobat	-12.6826
▁Article	-12.6826
▁Brooklyn	-12.6826
▁Cassandra	-12.6826
▁Council	-12.6826
▁Cranbury	-12.6826
▁Franchise	-12.6826
▁Hazard	-12.6826
▁Hospital	-12.6826
▁Kingdom	-12.6826
▁LabVIEW	-12.6826
▁Metrics	-12.6826
▁NeuroID	-12.6826
▁OGILVY	-12.6826
▁Photobooth	-12.6826
▁Pyspark	-12.6826
▁Spatula	-12.6826
▁Traffic	-12.6826
▁adecuado	-12.6826
▁anatomy	-12.6826
▁ansvarstagande	-12.6826
▁bleibt	-12.6826
▁bootcamps	-12.6826
▁dispositif	-12.6826
▁freelancers	-12.6826
▁iniciativa	-12.6826
▁innefatta	-12.6826
▁kollektivavtal	-12.6826
▁komponenter	-12.6826
▁kvalitet	-12.6826
▁mathematical	-12.6826
▁mirrors	-12.6826
▁multimdia	-12.6826
▁negcios	-12.6826
▁partenariats	-12.6826
▁remittance	-12.6826
▁rigueur	-12.6826
▁siempre	-12.6826
▁simplicity	-12.6826
▁snapshot	-12.6826
▁spcifiques	-12.6826
▁vertrau	-12.6826
▁BONUS	-12.6826
▁Filipino	-12.6826
▁Roadmap	-12.6826
▁Tencent	-12.6826
▁cryogenic	-12.6826
▁detallado	-12.6826
▁hurdles	-12.6826
▁kennen	-12.6826
▁ondersteuning	-12.6826
▁refrigera	-12.6826
▁zuverlssig	-12.6826
Stoughton	-12.6826
▁Optimierung	-12.6826
▁algebra	-12.6826
▁csapat	-12.6826
▁ingeniera	-12.6826
▁verwirklich	-12.6826
▁voltage	-12.6826
27001,	-12.6826
▁vlastn	-12.6826
▁zentrale	-12.6826
einander	-12.6826
▁Musik	-12.6826
▁Sport	-12.6826
▁cambios	-12.6826
kademi	-12.6826
▁257142	-12.6826
▁FMEA	-12.6826
▁Informatique	-12.6826
▁SharePoint	-12.6826
▁globlis	-12.6826
▁ASNT	-12.6826
▁ElproC	-12.6826
▁Hartnell	-12.6826
▁scrum	-12.6826
▁bumpers	-12.6826
rruption	-12.6826
▁$195,000	-12.6826
▁crecimiento	-12.6826
▁niche	-12.6826
▁qualidade	-12.6826
▁synchronization	-12.6826
▁skerhetsskydd	-12.6826
▁sync	-12.6826
▁automatizacin	-12.6826
▁aviation	-12.6826
▁Components	-12.6826
▁concevez	-12.6826
▁umfassende	-12.6826
▁criticit	-12.6826
▁requisitos	-12.6826
▁MCU	-12.6826
▁decorating	-12.6826
▁relatrios	-12.6826
▁Tiefbau	-12.6826
▁perfekt	-12.6826
▁Rideshare	-12.6826
▁zhl	-12.6826
Erfaren	-12.6826
▁Moderation	-12.6826
▁mjukvaru	-12.6826
▁2025-04-19	-12.6826
gestaltung	-12.6826
▁8:30	-12.6826
▁flux	-12.6826
▁LLC	-12.6826
Rigorous	-12.6826
▁obsession	-12.6826
▁20-30	-12.6826
▁GitOps	-12.6826
▁4:30	-12.6826
▁cognitive	-12.6826
▁elanlggningar	-12.6826
ULL	-12.6826
▁alloys	-12.6826
▁folgende	-12.6826
▁angol	-12.6826
▁strukturiert	-12.6826
planung	-12.6826
▁swag	-12.6826
▁reinventarte	-12.6826
Vereist	-12.6826
▁liabilities	-12.6827
▁trajectory	-12.6827
▁projektrer	-12.6827
▁biomedical	-12.6827
▁Einblick	-12.6827
▁prioriser	-12.6827
▁Mittel	-12.6827
▁biology	-12.6827
▁Install	-12.6827
▁SAML	-12.6827
PORT	-12.6827
▁Batch	-12.6827
▁Empower	-12.6827
ciendo	-12.6827
▁lemploi	-12.6827
▁Buddy	-12.6827
endimento	-12.6827
▁suporte	-12.6827
▁subsidiaries	-12.6827
▁Helpdesk	-12.6827
▁veloci	-12.6827
▁Enforcement	-12.6827
▁davon	-12.6827
▁encontra	-12.6827
▁Trainee	-12.6827
▁utvecklande	-12.6827
▁Avenue	-12.6827
▁motiviert	-12.6827
▁informtica	-12.6827
▁embark	-12.6827
▁gift	-12.6828
▁Clerical	-12.6828
▁carbon	-12.6828
▁buscamos	-12.6828
▁underpin	-12.6828
[...]
